[PAD]	0
[UNK]	0
[BOS]	0
[EOS]	0
[SEP]	0
[CLS]	0
[MASK]	0
.	-3.29861
,	-3.68096
의	-3.96062
는	-4.4527
▁	-4.46401
)	-4.47563
에	-4.51626
(	-4.53644
년	-4.57753
을	-4.59789
이	-4.79524
은	-4.8117
가	-4.93167
를	-4.9326
로	-5.18897
에서	-5.26926
월	-5.28346
과	-5.33659
▁있다	-5.47499
와	-5.52706
으로	-5.54839
일	-5.553
이다	-5.65274
▁이	-5.65604
인	-5.68169
도	-5.71156
한	-5.84916
▁수	-5.87016
▁1	-5.99628
▁2	-6.05599
고	-6.15614
▁그	-6.21875
▁3	-6.2199
▁있는	-6.37219
하는	-6.40545
▁제	-6.41301
하고	-6.42382
"	-6.44677
▁"	-6.45511
▁4	-6.46275
지	-6.47317
기	-6.55784
다	-6.58104
▁《	-6.59301
하여	-6.60267
▁5	-6.60536
했다	-6.61711
하였다	-6.62484
▁(	-6.64605
'	-6.68833
나	-6.69659
▁한	-6.70977
시	-6.73054
해	-6.73649
할	-6.74774
▁'	-6.74976
만	-6.75213
▁6	-6.77242
사	-6.77542
▁10	-6.8167
▁중	-6.82203
-	-6.8252
서	-6.83514
자	-6.8397
》	-6.84635
대	-6.85149
▁8	-6.86901
▁7	-6.87515
년에	-6.90488
▁한다	-6.90861
·	-6.90896
에게	-6.91893
▁후	-6.9241
▁~	-6.96108
▁9	-6.97776
▁그는	-6.97992
▁이후	-6.98002
▁등	-6.98002
리	-6.98006
된	-6.99706
▁되었다	-7.00895
스	-7.01525
▁12	-7.02547
적	-7.02721
성	-7.03566
주	-7.03652
▁다른	-7.04892
▁대한	-7.06772
되었다	-7.07259
▁같은	-7.08021
▁및	-7.09406
▁두	-7.09686
라	-7.10246
▁때	-7.12507
부	-7.14073
▁전	-7.15397
한다	-7.15538
하게	-7.15728
▁11	-7.15783
),	-7.16396
수	-7.18315
어	-7.20004
2	-7.20085
▁또한	-7.20406
이며	-7.20434
▁함께	-7.21865
()	-7.22891
개	-7.24318
▁위해	-7.2479
차	-7.24803
에서는	-7.25894
명	-7.26681
▁)	-7.26841
에는	-7.2747
상	-7.29022
화	-7.29282
세	-7.30344
면	-7.30873
라는	-7.32839
되어	-7.33341
동	-7.33448
▁주	-7.35428
▁시	-7.35572
제	-7.36613
1	-7.37244
진	-7.38472
▁때문에	-7.38622
▁그러나	-7.38857
아	-7.38956
▁그의	-7.39196
라고	-7.39978
하기	-7.39991
게	-7.40173
:	-7.40696
▁가장	-7.42342
▁formula	-7.42641
적인	-7.4325
▁것을	-7.4335
전	-7.4389
▁일본	-7.44039
조	-7.44601
장	-7.44738
▁있으며	-7.44806
들이	-7.45149
비	-7.45337
▁더	-7.47432
원	-7.47776
▁미국	-7.47967
산	-7.4815
호	-7.4831
▁또는	-7.48389
m	-7.48935
▁따라	-7.48983
정	-7.49177
▁했다	-7.49311
s	-7.49448
▁것으로	-7.50203
까지	-7.50575
▁된다	-7.5065
구	-7.51001
선	-7.51389
회	-7.51463
▁그리고	-7.51833
오	-7.52153
우	-7.52256
이나	-7.52582
미	-7.52624
▁있었다	-7.53155
트	-7.53527
▁당시	-7.54819
소	-7.55094
▁16	-7.56664
들은	-7.56756
▁오	-7.57001
야	-7.57668
▁15	-7.5825
▁의해	-7.58602
하며	-7.58841
▁신	-7.59638
마	-7.60469
▁아	-7.61269
군	-7.61336
▁많은	-7.62215
▁다음과	-7.62398
▁것이다	-7.62404
▁통해	-7.62853
▁성	-7.62966
보	-7.63544
▁비	-7.63859
▁‘	-7.63923
▁정	-7.64349
일에	-7.64644
신	-7.64711
치	-7.64746
▁구	-7.64875
하지	-7.64963
▁대	-7.65806
드	-7.66116
▁다시	-7.6631
▁역	-7.66391
타	-7.67687
3	-7.67702
▁해	-7.68003
노	-7.68261
▁하는	-7.69853
▁고	-7.71413
위	-7.72313
▁대한민국의	-7.72437
▁17	-7.72486
▁첫	-7.72666
▁사	-7.72718
들을	-7.72981
니	-7.73318
▁것이	-7.73445
이라는	-7.73562
▁유	-7.74233
’	-7.74506
▁현재	-7.75184
▁약	-7.75943
▁큰	-7.76573
천	-7.76681
▁20	-7.77975
▁장	-7.78349
/	-7.78573
현	-7.78805
▁소	-7.79372
▁경우	-7.7939
▁세	-7.79545
▁여러	-7.79688
형	-7.79688
▁하였다	-7.80343
▁세계	-7.80535
당	-7.80701
계	-7.81092
▁모두	-7.81412
▁14	-7.8147
▁한국	-7.81496
▁대한민국	-7.81715
하	-7.82304
하면서	-7.82468
▁데	-7.8263
▁모든	-7.82949
▁가	-7.83093
용	-7.83612
개의	-7.83714
코	-7.84147
식	-7.84681
▁조	-7.84839
파	-7.86202
이라고	-7.8626
토	-7.86734
무	-7.86808
▁강	-7.87163
문	-7.8762
며	-7.87642
경	-7.8795
▁다	-7.87994
▁다음	-7.88598
되고	-7.88715
포	-7.89072
▁도	-7.89127
중	-7.89472
▁미	-7.90123
▁내	-7.90556
▁위한	-7.91079
공	-7.91288
▁등의	-7.91353
레	-7.91378
하였고	-7.91471
▁할	-7.9166
되는	-7.91676
였다	-7.92407
했고	-7.93195
▁뒤	-7.93294
유	-7.93917
▁같다	-7.93953
▁13	-7.94267
▁지	-7.94353
▁것은	-7.94527
바	-7.94606
이었다	-7.94629
관	-7.9467
카	-7.95161
km	-7.95308
▁양	-7.95387
모	-7.96388
▁자신의	-7.96612
▁일	-7.96916
데	-7.97073
▁축구	-7.97299
▁안	-7.97541
년부터	-7.97688
분	-7.97766
▁총	-7.97839
▁등이	-7.98535
▁부	-7.99163
▁기	-7.99651
국	-7.99756
▁선	-8.00295
루	-8.00436
▁-	-8.00656
년에는	-8.00677
▁마	-8.0088
들	-8.01385
강	-8.01623
적으로	-8.01657
▁이러한	-8.01762
크	-8.01851
▁서	-8.01865
▁원	-8.02509
된다	-8.02653
즈	-8.03398
영	-8.03688
▁알	-8.03978
▁하지만	-8.04065
▁〈	-8.04077
석	-8.04365
▁18	-8.04392
키	-8.04915
▁대해	-8.05862
▁등을	-8.06245
▁나	-8.07157
▁바	-8.07316
▁각	-8.07471
안	-8.07662
들의	-8.07904
▁A	-8.0864
란	-8.08875
여	-8.09309
▁위치한	-8.09434
보다	-8.09508
단	-8.10672
르	-8.1068
프	-8.1076
>	-8.1081
▁상	-8.10877
▁시즌	-8.10935
학	-8.11065
▁말	-8.11066
▁30	-8.11347
▁산	-8.11431
▁영화	-8.1167
재	-8.1221
티	-8.12239
연	-8.12401
법	-8.1243
양	-8.12609
네	-8.13035
▁조선	-8.13139
▁동안	-8.13497
간	-8.1378
4	-8.13892
▁중국	-8.13904
▁호	-8.14245
▁무	-8.14367
디	-8.14667
▁또	-8.15146
▁자	-8.15679
▁2010	-8.15731
▁군	-8.16503
▁하고	-8.1693
부터	-8.17118
▁보	-8.17212
던	-8.17542
▁되어	-8.17659
▁이는	-8.17902
로서	-8.17908
▁반	-8.17992
▁동	-8.18089
방	-8.18816
▁미국의	-8.19244
▁하	-8.19715
▁B	-8.19882
이자	-8.20413
▁“	-8.20419
후	-8.20477
▁리	-8.20862
▁이를	-8.21008
▁우	-8.21229
▁2008	-8.21414
히	-8.21517
역	-8.22021
▁지역	-8.22154
▁특히	-8.22209
번	-8.223
〉	-8.22427
종	-8.22472
C	-8.22638
▁당	-8.23029
▁모	-8.23119
▁진	-8.23253
▁S	-8.23293
세기	-8.23521
▁같이	-8.23536
▁일부	-8.23831
권	-8.23939
▁김	-8.24168
피	-8.24392
년까지	-8.24905
초	-8.25366
▁번째	-8.25535
이고	-8.26006
▁된	-8.26098
▁19	-8.26172
▁현	-8.26438
교	-8.26709
체	-8.26792
요	-8.27228
▁경	-8.27377
▁리그	-8.27446
A	-8.27487
▁2007	-8.27555
▁<	-8.27631
로부터	-8.27784
▁K	-8.27836
▁노	-8.28109
▁주로	-8.28265
▁피	-8.28496
▁C	-8.28527
▁있고	-8.28583
▁2011	-8.28602
러	-8.2867
▁2009	-8.28671
▁볼	-8.28778
▁새로운	-8.28952
되었고	-8.28969
5	-8.2917
▁프랑스	-8.29393
▁2012	-8.2967
실	-8.29837
했으며	-8.29949
▁잘	-8.30213
S	-8.3049
청	-8.30671
▁명	-8.30689
급	-8.30926
월에	-8.30973
▁것	-8.31026
▁인해	-8.31144
왕	-8.31484
▁즉	-8.31676
거	-8.32019
민	-8.32122
하였으며	-8.32147
B	-8.32288
면서	-8.32327
▁초	-8.3249
▁받았다	-8.3295
▁단	-8.33123
▁있던	-8.33232
▁카	-8.33456
▁국가	-8.33545
집	-8.33744
반	-8.33903
▁2014	-8.34149
▁위	-8.34266
▁매우	-8.3434
▁아니라	-8.34402
▁재	-8.34459
▁파	-8.34494
▁서울	-8.35112
에도	-8.35588
▁남	-8.35935
승	-8.36259
▁국제	-8.36356
남	-8.36399
▁라	-8.36833
린	-8.37283
▁2013	-8.3731
▁M	-8.37648
▁코	-8.37666
그	-8.37667
▁가지고	-8.38209
▁영국	-8.38219
”	-8.38224
배	-8.38247
▁없다	-8.3852
될	-8.38732
병	-8.39029
▁이에	-8.39115
생	-8.39757
▁독일	-8.40056
더	-8.40499
운	-8.40526
두	-8.40709
▁있어	-8.4078
▁일본의	-8.41026
▁않았다	-8.41672
▁25	-8.41905
▁어	-8.42015
▁불	-8.42161
D	-8.42211
테	-8.42709
▁게임	-8.43062
▁2015	-8.43214
▁결국	-8.43267
▁없는	-8.4345
▁않고	-8.43825
6	-8.43858
▁2006	-8.44016
▁간	-8.45475
했던	-8.45546
각	-8.45626
발	-8.45711
점	-8.4584
▁삼	-8.45962
▁공	-8.46017
▁이어	-8.4624
▁많이	-8.46582
▁타	-8.46656
창	-8.47226
이라	-8.47362
림	-8.4741
류	-8.47534
▁21	-8.4792
질	-8.48216
▁영	-8.48461
▁포	-8.48557
▁2016	-8.48676
K	-8.48834
▁연구	-8.49574
▁왕	-8.49658
▁외	-8.49664
▁도시	-8.49706
▁스	-8.49843
년대	-8.50304
▁박	-8.50323
▁한편	-8.50344
일부터	-8.51458
")	-8.52382
▁주요	-8.52425
령	-8.52627
량	-8.52761
▁F	-8.52808
온	-8.52886
▁배	-8.52983
▁가운데	-8.53088
▁24	-8.53238
봉	-8.5335
물	-8.5348
터	-8.53643
▁유럽	-8.53675
▁연	-8.54098
▁로	-8.54189
하기도	-8.54222
등	-8.54244
내	-8.54253
명의	-8.5435
▁문	-8.54597
▁백	-8.54638
광	-8.54639
금	-8.5464
감	-8.54666
▁본	-8.54773
판	-8.553
▁다양한	-8.56091
▁기준	-8.56161
▁따라서	-8.56183
▁방송	-8.56444
되었으며	-8.56621
▁22	-8.56675
▁이상	-8.56681
▁올림픽	-8.56872
▁음악	-8.56921
▁들어	-8.56938
▁23	-8.57086
항	-8.57147
▁만	-8.57445
메	-8.57755
▁2017	-8.57833
T	-8.57858
▁로마	-8.58003
M	-8.58537
▁인	-8.58842
▁수도	-8.58887
목	-8.59044
츠	-8.59165
▁T	-8.59219
주의	-8.59305
▁대학	-8.59413
랑	-8.5952
▁번	-8.59813
속	-8.59948
▁방	-8.59956
t	-8.60088
▁이름을	-8.60203
▁전쟁	-8.60272
▁경기	-8.60296
론	-8.60304
▁2018	-8.60345
백	-8.60602
▁D	-8.60884
▁P	-8.60959
되지	-8.61037
음	-8.61061
▁2005	-8.61191
▁거의	-8.61284
▁러시아	-8.61499
▁R	-8.61882
▁G	-8.61988
태	-8.62304
▁청	-8.62647
브	-8.6266
암	-8.62687
▁선수	-8.6284
▁심	-8.62943
▁작은	-8.62954
▁높은	-8.63144
▁계속	-8.63161
▁2000	-8.63204
▁예	-8.63289
▁여	-8.6336
행	-8.63384
▁매	-8.63451
예	-8.6374
으로부터	-8.63776
순	-8.63893
하면	-8.64111
7	-8.64266
▁처음	-8.64273
▁프로	-8.64394
▁28	-8.64963
쿠	-8.65071
▁네	-8.65123
▁사회	-8.65154
▁따르면	-8.65179
직	-8.65392
▁영향을	-8.65412
설	-8.65519
였던	-8.65704
▁조직	-8.66181
▁2004	-8.66237
▁경제	-8.66358
복	-8.66541
▁이탈리아	-8.6656
하다	-8.66861
초등학교	-8.66868
▁26	-8.67016
▁27	-8.67079
▁인구는	-8.67156
저	-8.67197
P	-8.67229
y	-8.6761
F	-8.67668
▁여자	-8.67825
▁않은	-8.67854
위를	-8.67896
▁금	-8.67914
▁알려져	-8.68055
▁가지	-8.68237
▁말한다	-8.68345
에서도	-8.6835
▁아들	-8.68381
케	-8.68468
심	-8.6851
▁of	-8.6882
▁개	-8.68921
▁지방	-8.69198
▁날	-8.69221
▁난	-8.69342
▁고려	-8.69639
▁있는데	-8.69791
▁차	-8.69796
▁교육	-8.70022
처럼	-8.70283
번째	-8.70416
본	-8.70554
▁100	-8.70687
▁레	-8.70706
▁되는	-8.70717
▁뜻은	-8.70759
엔	-8.70902
살	-8.71002
하던	-8.71199
베	-8.7132
▁여성	-8.71376
들과	-8.71405
곡	-8.71498
버	-8.71504
8	-8.71805
희	-8.71863
으로서	-8.72095
▁사용	-8.72325
▁드라마	-8.7235
19	-8.72361
▁역시	-8.72405
▁서로	-8.72464
n	-8.7249
G	-8.72533
불	-8.7266
▁크게	-8.72686
▁발	-8.72833
하자	-8.72873
근	-8.73059
▁관한	-8.73271
▁E	-8.73313
▁중요한	-8.73601
▁개발	-8.73734
▁열린	-8.73938
▁않는다	-8.74067
▁하여	-8.74152
▁후에	-8.74506
▁황	-8.74701
지만	-8.74738
▁적	-8.75098
려	-8.75119
와의	-8.75358
▁송	-8.75516
했지만	-8.75773
억	-8.75783
▁임	-8.7602
▁종	-8.76035
덕	-8.76062
▁FC	-8.76202
절	-8.76577
▁그가	-8.76634
▁받아	-8.76695
달	-8.77046
▁29	-8.77171
투	-8.7731
▁열	-8.77421
▁직접	-8.7753
▁거쳐	-8.77647
▁않는	-8.77821
▁각각	-8.77879
▁속	-8.77905
약	-8.77961
일까지	-8.7807
▁화	-8.78137
▁치	-8.7845
통	-8.78917
▁몇	-8.78926
평	-8.78962
환	-8.79022
▁달	-8.79365
기를	-8.7941
철	-8.7943
해서	-8.79521
▁새	-8.79569
▁2002	-8.79664
▁사이에	-8.79689
▁최	-8.80252
하였으나	-8.80257
었다	-8.80313
V	-8.80438
층	-8.80768
씨	-8.80891
건	-8.80999
되면서	-8.81072
▁동시에	-8.81085
매	-8.81132
▁분	-8.81263
▁경기도	-8.81285
증	-8.81583
▁가진	-8.81623
▁군사	-8.81823
성을	-8.81832
▁시작했다	-8.81869
탄	-8.82004
임	-8.82344
해야	-8.82442
("	-8.82618
R	-8.8271
▁대전	-8.82816
金	-8.82826
▁대통령	-8.82897
▁아닌	-8.82959
▁어떤	-8.82982
▁H	-8.83159
족	-8.83321
▁W	-8.83508
▁윤	-8.83754
▁2003	-8.83771
▁베	-8.84277
▁달리	-8.8465
▁J	-8.84794
▁독립	-8.84865
준	-8.852
▁존	-8.85337
기도	-8.85354
▁천	-8.85521
▁마지막	-8.8555
으며	-8.85565
▁키	-8.85598
▁역할을	-8.86013
지는	-8.86085
e	-8.86236
▁판	-8.86668
10	-8.86701
▁활동	-8.86786
▁철도	-8.86904
▁처음으로	-8.86983
난	-8.87064
명이	-8.87114
▁최초의	-8.8729
▁의한	-8.87348
▁시대	-8.87402
▁기술	-8.87466
했으나	-8.8747
9	-8.87501
▁토	-8.87646
이었던	-8.87756
▁운영	-8.87952
▁생산	-8.88018
▁물	-8.88092
▁보통	-8.88106
E	-8.88131
력	-8.88161
▁결과	-8.88164
▁북	-8.88445
▁자유	-8.8855
열	-8.88635
▁중앙	-8.88776
大	-8.88783
▁최고	-8.88899
▁「	-8.8901
박	-8.89067
▁보고	-8.89088
▁홍	-8.89268
▁전투	-8.89356
너	-8.89373
▁저	-8.89512
山	-8.89845
▁실	-8.90044
▁팀	-8.90073
▁:	-8.90295
세의	-8.90602
말	-8.90791
N	-8.90988
▁공격	-8.91
▁루	-8.91077
작	-8.91141
길	-8.91347
▁대신	-8.91374
W	-8.91431
▁31	-8.91452
▁행정	-8.91533
▁시리즈	-8.91649
▁되고	-8.91698
L	-8.91757
▁위하여	-8.91772
▁있을	-8.91865
]	-8.91879
표	-8.91946
」	-8.91966
》(	-8.91993
됐다	-8.92071
추	-8.92084
▁온	-8.92139
▁음반	-8.92194
▁제작	-8.92238
처	-8.92387
▁1990	-8.92608
▁정치	-8.92652
▁경기에서	-8.92742
▁채	-8.92752
▁국민	-8.92927
거나	-8.93211
▁대회	-8.9361
▁용	-8.93768
H	-8.94211
▁기록	-8.94433
▁입	-8.94456
▁병	-8.94458
이기도	-8.94469
▁혹은	-8.94571
▁건설	-8.94655
▁하며	-8.95098
슈	-8.95229
▁교	-8.95315
색	-8.95346
▁기원전	-8.95409
변	-8.95675
▁변	-8.96007
▁중심으로	-8.96143
호로	-8.9622
▁지원	-8.96234
▁요	-8.96291
▁일반적으로	-8.96317
▁L	-8.96341
락	-8.96662
송	-8.96819
▁애	-8.96821
▁속하는	-8.97071
▁정도	-8.97144
▁V	-8.97322
시켰다	-8.97434
▁감독	-8.97441
충	-8.97668
는데	-8.97677
▁개의	-8.97842
▁야	-8.97857
커	-8.97957
▁이것은	-8.9796
▁이때	-8.98201
▁이미	-8.98295
a	-8.98377
상을	-8.98525
▁광	-8.98633
▁자연	-8.98683
)·	-8.98717
▁우승	-8.9872
▁될	-8.9873
▁국	-8.98802
▁2001	-8.99483
▁문화	-8.99483
▁있다고	-8.99732
함	-8.99875
李	-9.00171
▁관리	-9.00215
▁없이	-9.00218
▁컴퓨터	-9.00355
▁겸	-9.00425
▁받은	-9.00431
▁봉	-9.00543
▁앨범	-9.00844
▁석	-9.01031
▁법	-9.01067
▁만든	-9.01112
▁허	-9.01204
▁바로	-9.01457
▁관련	-9.01469
▁섬	-9.01514
▁현대	-9.01562
대학교	-9.01575
빈	-9.01658
대학	-9.0166
▁하나	-9.01886
▁디	-9.02076
▁공식	-9.02113
▁소속	-9.02249
▁받고	-9.02447
스트	-9.02472
i	-9.02633
▁배우이다	-9.02954
▁시작	-9.02979
▁50	-9.0321
자가	-9.03231
▁U	-9.03467
▁때문이다	-9.03478
언	-9.03614
▁기준으로	-9.0364
▁그리스	-9.03687
~	-9.03866
골	-9.03898
극	-9.04097
▁구성	-9.04214
합	-9.04301
▁되었고	-9.04312
▁아버지	-9.04463
시간	-9.04471
▁싱글	-9.04615
래	-9.04737
립	-9.04748
▁교황	-9.04828
▁순	-9.05149
▁그녀는	-9.05168
▁N	-9.05318
편	-9.05329
▁전체	-9.05433
있다	-9.0548
업	-9.05492
▁the	-9.05515
▁야구	-9.05532
▁진행	-9.0572
▁영화이다	-9.05773
링	-9.0579
▁정부	-9.05906
하는데	-9.05971
▁FIFA	-9.06377
▁태어났다	-9.0638
▁I	-9.06447
품	-9.06498
하거나	-9.06599
▁창	-9.06726
▁두고	-9.06826
▁일반	-9.06967
]]	-9.07043
▁지정되었다	-9.07203
리그	-9.0726
ing	-9.07337
▁해당	-9.07467
손	-9.07567
▁서울특별시	-9.07641
향	-9.07661
져	-9.07667
망	-9.0768
▁자신이	-9.07833
▁줄	-9.07895
▁권	-9.07959
출	-9.082
▁활동을	-9.08307
▁원래	-9.08317
▁하나이다	-9.08374
al	-9.08657
▁아이	-9.08716
▁1980	-9.08719
외	-9.08729
▁별	-9.08744
▁이름은	-9.08753
▁존재	-9.08838
▁대학교	-9.08884
범	-9.08886
▁감	-9.08915
규	-9.0896
▁결정	-9.08989
▁있어서	-9.0907
▁있지만	-9.09074
록	-9.09172
▁발매	-9.09178
▁이런	-9.09338
이란	-9.09389
▁메	-9.0942
▁남자	-9.09492
▁대부분의	-9.09546
들에게	-9.09591
er	-9.09598
▁손	-9.09709
읍	-9.09865
cm	-9.09963
▁1999	-9.09999
▁편	-9.10029
▁고대	-9.1005
o	-9.10397
▁스페인	-9.10476
▁그를	-9.10543
▁TV	-9.10625
▁전기	-9.10635
명을	-9.10659
▁지역에	-9.10865
▁1998	-9.10933
▁사상	-9.1112
별	-9.11134
격	-9.11242
▁드	-9.11243
훈	-9.11387
퍼	-9.11473
▁자기	-9.11542
악	-9.11547
숙	-9.11568
▁0	-9.11668
▁인도	-9.11699
▁초기	-9.11779
▁인구	-9.11875
▁하다	-9.11909
▁살	-9.12016
▁최초로	-9.12066
▁[[	-9.12496
▁이전	-9.12531
▁전자	-9.12671
▁대하여	-9.12741
▁선거	-9.12859
▁그룹	-9.12973
장을	-9.13042
중학교	-9.13159
▁기독교	-9.135
▁부산	-9.13598
!	-9.13611
▁사건	-9.13694
하지만	-9.13826
▁이상의	-9.13862
▁계획	-9.13866
담	-9.13881
▁건	-9.14045
▁잉글랜드	-9.14054
▁시간	-9.14177
▁점	-9.14267
▁관	-9.14376
▁배우	-9.14466
h	-9.14529
▁등으로	-9.14643
▁추가	-9.14701
20	-9.1472
▁목	-9.1486
▁태	-9.14876
▁등에	-9.14961
삼	-9.15207
▁보인다	-9.15325
▁있었던	-9.15363
북	-9.15415
렌	-9.15424
▁분류	-9.15479
▁전국	-9.15509
▁만들어	-9.15514
필	-9.15729
▁공화국	-9.15739
▁팔	-9.15768
▁계	-9.15904
▁발전	-9.15905
▁애니메이션	-9.16013
▁정보	-9.16427
▁걸쳐	-9.16524
▁이름으로	-9.16732
▁거	-9.16949
되며	-9.16971
▁생활	-9.17012
▁월드컵	-9.17151
▁대부분	-9.17166
▁없었다	-9.17176
런	-9.1721
▁반대	-9.17231
스는	-9.17329
d	-9.17676
▁최대	-9.17745
녀	-9.1784
▁데뷔	-9.17871
▁선수이다	-9.17987
▁민	-9.18062
▁어느	-9.18136
I	-9.18323
돌	-9.18446
▁1997	-9.18621
▁2019	-9.1887
▁도쿄	-9.18906
함으로써	-9.18953
in	-9.19055
▁이유로	-9.19117
턴	-9.19248
l	-9.19565
▁이용	-9.19713
일에는	-9.19715
결	-9.19795
▁기타	-9.20022
칸	-9.2006
선의	-9.20064
▁연방	-9.20113
스타	-9.20183
축	-9.20293
▁곡	-9.203
▁출신	-9.20355
▁있게	-9.20436
▁생각	-9.20469
▁·	-9.20608
▁1995	-9.20656
▁좋은	-9.20717
O	-9.20761
▁가리킨다	-9.20771
▁발생	-9.20786
▁변경	-9.20946
풍	-9.21036
▁이동	-9.21047
▁면적은	-9.21107
년간	-9.21173
▁공립	-9.21209
▁회	-9.21304
입	-9.21568
▁1996	-9.21588
누	-9.21605
▁대표	-9.21626
▁나라	-9.21774
▁시스템	-9.21873
▁사람이	-9.22002
▁40	-9.22063
세는	-9.2216
▁학교	-9.222
▁발표	-9.22209
b	-9.22306
채	-9.22308
▁음	-9.22312
페	-9.2244
_1	-9.22493
▁패	-9.22506
▁승강장	-9.2252
▁기간	-9.22527
권을	-9.22697
▁네덜란드	-9.2273
en	-9.22788
▁예를	-9.22843
했는데	-9.22925
▁폴란드	-9.23019
▁조사	-9.23095
▁표현	-9.2313
▁쿠	-9.23201
▁추	-9.23254
ed	-9.23326
▁형	-9.23374
▁곧	-9.23399
▁황제	-9.23487
▁공동	-9.23526
▁어머니	-9.23529
되기	-9.23592
▁사이	-9.23812
리아	-9.24002
애	-9.24033
▁더욱	-9.24063
▁노래	-9.2413
탈	-9.24327
▁체	-9.24351
문화	-9.24358
▁민족	-9.24432
mm	-9.24442
▁아시아	-9.24504
▁육군	-9.24552
▁식	-9.24572
팀	-9.24589
▁들	-9.2463
총	-9.24651
▁이들은	-9.24691
▁그들의	-9.24737
슨	-9.2487
세가	-9.24891
▁사용하는	-9.24951
▁생	-9.25007
▁산업	-9.25084
고등학교	-9.25092
이지만	-9.25156
독	-9.25157
▁말했다	-9.25264
▁집	-9.25335
례	-9.25539
▁기업	-9.25581
▁1994	-9.25708
▁페	-9.25847
p	-9.25947
있는	-9.26373
▁이와	-9.26383
▁친	-9.26386
▁이야기	-9.26443
▁운동	-9.26473
▁길	-9.26476
▁맡았다	-9.26493
시켜	-9.26612
▁이들	-9.26638
▁현재는	-9.26682
시키는	-9.26815
k	-9.2713
▁것이라고	-9.27297
▁투	-9.27358
▁철	-9.27655
▁1970	-9.27722
▁가수	-9.27774
▁1992	-9.27891
▁하나의	-9.28008
▁하나로	-9.28048
▁연결	-9.28094
▁향	-9.2811
▁통	-9.28318
갈	-9.28322
0	-9.28409
익	-9.28465
머	-9.28498
졌다	-9.28546
▁모습을	-9.28582
패	-9.28597
헌	-9.28637
▁밝혔다	-9.28638
▁유지	-9.28758
▁지역의	-9.28764
촌	-9.28838
18	-9.28844
찬	-9.28867
▁참	-9.28903
▁행	-9.28961
g	-9.28996
윤	-9.29081
▁불구하고	-9.29088
성이	-9.29127
▁설립	-9.29231
▁하지	-9.29289
▁알려진	-9.29389
▁과학	-9.29441
▁사람	-9.29464
The	-9.2947
11	-9.29498
지를	-9.29641
막	-9.298
옥	-9.29915
▁작품	-9.29934
▁확장	-9.2996
위원회	-9.30063
▁시절	-9.3008
▁못했다	-9.3018
▁많다	-9.30276
들에	-9.30425
황	-9.30454
술	-9.30534
군의	-9.30723
▁귀	-9.30778
▁공연	-9.30823
▁서비스	-9.3086
▁전에	-9.30994
▁문제	-9.31168
▁전문	-9.31246
▁프로그램	-9.31351
12	-9.31375
나무	-9.31464
▁널리	-9.31488
대로	-9.31641
▁종교	-9.31665
▁우주	-9.31755
▁영국의	-9.31942
▁국내	-9.31957
▁선발	-9.31969
▁빈	-9.31986
文	-9.32097
월부터	-9.32254
▁텔레비전	-9.32374
▁제국	-9.32378
30	-9.32384
▁이듬해	-9.32516
▁않다	-9.32531
▁비해	-9.32551
▁돌	-9.3256
▁사실	-9.32566
▁그들은	-9.32578
▁것에	-9.32584
▁평균	-9.32608
▁등과	-9.32657
샤	-9.32767
▁선택	-9.32779
J	-9.32817
▁위에	-9.32866
▁아래	-9.33062
새	-9.33272
▁긴	-9.33298
울	-9.3331
월에는	-9.3345
▁스타	-9.33463
료	-9.33524
리에	-9.33538
▁1991	-9.33564
▁포함한	-9.33623
▁티	-9.33771
▁연합	-9.3384
▁명의	-9.33843
▁도로	-9.33894
▁준	-9.33953
▁존재한다	-9.33954
홍	-9.33959
▁관계	-9.33997
▁연속	-9.34065
▁발견	-9.34073
▁쇼	-9.34137
▁갖고	-9.3419
마다	-9.34221
▁포함	-9.34248
자를	-9.34303
▁사이의	-9.34321
궁	-9.34387
us	-9.34515
▁km	-9.34537
▁지구	-9.34553
f	-9.34642
▁1993	-9.34716
▁자주	-9.34731
▁소설	-9.34737
때	-9.3486
하도록	-9.35104
▁완전히	-9.35184
▁비롯한	-9.35185
▁주의	-9.35288
▁목적으로	-9.35429
경기	-9.35456
▁평	-9.35481
▁현재의	-9.35636
▁성공	-9.35732
▁표준	-9.35751
▁뉴욕	-9.35842
▁클럽	-9.3585
▁딸	-9.35862
▁1960	-9.35904
u	-9.35935
개월	-9.35985
▁개인	-9.36019
▁1988	-9.3612
쇼	-9.36204
▁남부	-9.36214
▁사업	-9.3622
▁결혼	-9.36284
▁슈	-9.36316
▁통합	-9.36445
▁X	-9.36448
▁인간	-9.36589
▁설치	-9.36605
▁면	-9.36722
▁못	-9.36734
王	-9.36824
▁그대로	-9.36855
▁베트남	-9.36864
▁인터넷	-9.37058
▁유명한	-9.37262
먼	-9.37464
X	-9.37465
▁증가	-9.37521
c	-9.37615
15	-9.37684
▁정규	-9.3798
맨	-9.37984
▁수상	-9.38161
▁판매	-9.38562
▁주도	-9.38591
▁여기서	-9.3865
▁보호	-9.38662
날	-9.3877
▁정도로	-9.39216
▁하계	-9.39264
▁과거	-9.39267
도록	-9.39309
▁캐나다	-9.39471
▁중심	-9.39495
▁정의	-9.39642
▁막	-9.39643
▁독일의	-9.39645
▁출전	-9.39696
▁때까지	-9.39708
▁과정에서	-9.39713
좌	-9.39844
했을	-9.39981
▁우승을	-9.40026
다가	-9.40529
▁평가	-9.40535
학교	-9.40622
▁남아	-9.40626
▁있도록	-9.40671
인데	-9.40673
견	-9.40793
자로	-9.40962
▁프랑스의	-9.41008
볼	-9.41178
▁기본	-9.4121
th	-9.41271
▁세포	-9.41348
▁UEFA	-9.41354
▁보내	-9.41403
▁역사	-9.41406
▁부분	-9.41435
▁차량	-9.41514
▁의하여	-9.41522
▁사람들이	-9.4155
▁암	-9.4157
▁1989	-9.41573
▁있기	-9.41728
되었으나	-9.4173
▁해군	-9.41742
▁선수로	-9.41795
▁스포츠	-9.41808
▁있으나	-9.41823
▁먼저	-9.41942
▁밀	-9.41997
방송	-9.42028
회의	-9.42033
▁골	-9.42038
80	-9.42096
기는	-9.42309
섬	-9.42332
▁도입	-9.42338
▁영어	-9.4234
▁옛	-9.42355
▁중에	-9.42501
▁환경	-9.42533
▁게	-9.42599
야마	-9.42746
國	-9.42871
16	-9.42932
▁죽	-9.42941
▁O	-9.42981
Y	-9.43031
;	-9.4305
▁분석	-9.43208
▁지배	-9.43227
▁누	-9.43448
▁통일	-9.43502
▁오스트리아	-9.43533
쓰	-9.43547
▁것과	-9.43603
▁그녀의	-9.43697
▁공개	-9.43724
▁상대	-9.43753
▁갈	-9.43771
▁히	-9.43789
▁강화	-9.43847
▁것이었다	-9.43876
▁국가대표팀	-9.43877
▁대구	-9.4393
▁KBS	-9.43996
귀	-9.44024
위에	-9.4403
▁사망	-9.44042
▁선수권	-9.44056
▁최종	-9.44067
60	-9.44091
▁맥	-9.44098
교육	-9.44145
U	-9.44192
▁불리는	-9.4426
사를	-9.44271
자의	-9.44274
▁형성	-9.44408
▁비슷한	-9.4456
▁가능하다	-9.44603
le	-9.4482
17	-9.44823
▁지냈다	-9.44848
릴	-9.44871
▁법률	-9.45
▁걸	-9.45076
▁항공	-9.45138
▁문학	-9.45323
▁벌	-9.45324
▁악	-9.45382
▁환	-9.45406
▁경우가	-9.4542
on	-9.45424
▁밴드	-9.45506
▁교수	-9.45554
었고	-9.45639
기가	-9.45778
▁함	-9.45786
김	-9.45839
▁시도	-9.45938
▁칼	-9.45975
or	-9.46021
▁혁명	-9.46031
▁사용한다	-9.46041
▁헌법	-9.4613
하였는데	-9.46248
▁아프리카	-9.46275
▁초대	-9.46382
▁자동차	-9.46482
▁마을	-9.46535
밀	-9.4659
워	-9.46601
▁기능	-9.46627
▁실제	-9.46633
▁동부	-9.46754
▁설	-9.46837
▁진출	-9.46883
룡	-9.46932
▁집단	-9.47013
▁변화	-9.472
▁이름	-9.47353
▁북부	-9.47401
▁부족	-9.47422
13	-9.4754
)'	-9.47614
▁지명	-9.47671
▁처리	-9.47702
름	-9.47779
완	-9.47824
▁버	-9.47824
》()	-9.47948
▁상대로	-9.48023
동에	-9.4803
센	-9.4804
▁수많은	-9.48115
▁의하면	-9.48155
▁높이	-9.48176
▁국립	-9.48271
▁해석	-9.48287
스의	-9.48328
▁동물	-9.48338
▁라디오	-9.48477
▁계약	-9.48502
군은	-9.48577
▁남성	-9.48617
▁제국의	-9.48701
▁구조	-9.48713
▁끝에	-9.48718
흥	-9.48791
▁의미한다	-9.48882
州	-9.48893
▁이름이	-9.48923
▁곳에	-9.49016
▁200	-9.49112
▁출연	-9.49225
스터	-9.49316
▁스스로	-9.49463
▁형태로	-9.49498
사가	-9.49653
▁샤	-9.49724
친	-9.49742
▁1945	-9.49826
▁위해서	-9.499
▁대표적인	-9.49921
▁풍	-9.49984
▁책	-9.50019
▁구성되어	-9.50075
▁건물	-9.50195
40	-9.50198
▁사이에서	-9.50283
▁운행	-9.50395
든	-9.50613
▁추진	-9.50676
▁특정	-9.50697
is	-9.50841
▁주장	-9.50847
자는	-9.50958
만이	-9.51001
▁절	-9.51051
▁수행	-9.51135
▁표	-9.51137
▁있지	-9.5118
▁공작	-9.51315
▁오스트레일리아	-9.51332
▁지역에서	-9.51357
▁관측	-9.51387
▁서부	-9.51473
염	-9.51627
▁푸	-9.51663
▁부른다	-9.51719
[	-9.51827
50	-9.5193
취	-9.51989
알	-9.51997
25	-9.52384
▁이렇게	-9.52457
▁시기	-9.52465
▁1986	-9.52522
-1	-9.52586
TV	-9.52606
▁m	-9.52623
▁1987	-9.52646
三	-9.52667
▁마찬가지로	-9.52747
▁시작하였다	-9.52764
▁연기	-9.52863
▁나머지	-9.52962
道	-9.52981
▁기록했다	-9.53056
▁경상북도	-9.53171
▁예술	-9.53185
▁육	-9.53274
▁몸	-9.53337
▁1950	-9.53347
▁만에	-9.53451
▁언어	-9.53474
톤	-9.53511
▁설계	-9.53589
▁질	-9.53636
南	-9.53744
(18	-9.53853
▁옥	-9.53868
가지	-9.53889
▁공간	-9.53912
하라	-9.53929
ar	-9.54079
▁와	-9.54137
▁건축	-9.54163
▁승리	-9.54198
▁아르	-9.54218
호선	-9.54276
▁경상남도	-9.54479
▁시에	-9.54539
▁모델	-9.54545
흐	-9.54654
허	-9.54685
▁버스	-9.54721
▁보다	-9.54749
▁행성	-9.54761
택	-9.54937
▁쓴	-9.54943
명이다	-9.54944
▁후보	-9.54959
▁완	-9.54968
14	-9.54971
▁파괴	-9.55009
▁공항	-9.55103
▁프리	-9.55181
▁주변	-9.55247
▁헤	-9.55298
▁『	-9.55313
▁에너지	-9.55342
▁과	-9.55388
▁있다는	-9.55417
▁근	-9.55494
▁테	-9.55561
▁전라남도	-9.55656
▁사용된다	-9.55697
▁조선민주주의인민공화국	-9.55726
▁밤	-9.55731
▁인천	-9.55732
▁성장	-9.55735
▁부인	-9.55748
▁지난	-9.5579
련	-9.55846
▁파리	-9.55935
安	-9.55962
▁정리	-9.55988
빌	-9.56066
▁미국에서	-9.56074
▁쓰	-9.56097
▁뿐	-9.56104
▁인식	-9.56132
▁커	-9.56141
▁몇몇	-9.56222
▁노선	-9.56241
▁준비	-9.56285
▁요리	-9.56374
▁필	-9.5644
른	-9.56445
▁태양	-9.56529
▁대해서는	-9.56536
▁칸	-9.56538
▁사용할	-9.56599
▁복	-9.56615
▁그린	-9.56619
▁1984	-9.56659
▁이루어져	-9.56672
스키	-9.56672
되기도	-9.56677
시에	-9.5669
▁통치	-9.56722
▁도시로	-9.56851
br	-9.56861
▁다만	-9.56927
▁올	-9.56938
▁가정	-9.57
▁데이터	-9.57015
▁만화	-9.57102
▁소프트웨어	-9.57106
▁기관	-9.57134
만을	-9.57174
東	-9.57207
▁있었고	-9.57253
▁실험	-9.57259
▁식민지	-9.57455
子	-9.57461
▁덕	-9.57491
▁불교	-9.57492
▁못하고	-9.57586
▁조각	-9.5762
▁관련된	-9.57625
▁레이	-9.57647
城	-9.57689
▁때는	-9.57809
했다고	-9.57963
벌	-9.57978
▁색	-9.58012
▁중에서	-9.58032
▁사고	-9.58101
▁일을	-9.5811
▁위치하고	-9.58325
▁등장	-9.58449
▁떨어진	-9.58518
▁요구	-9.58738
▁폐	-9.5877
▁따른	-9.58862
▁열차	-9.5888
▁목록	-9.5891
▁니	-9.58964
▁배치	-9.59017
▁소련	-9.59037
하려	-9.5905
▁지지	-9.59082
묘	-9.59088
▁지하철	-9.59134
an	-9.59257
책	-9.59384
하기로	-9.59409
▁정당	-9.59459
▁연주	-9.59465
▁1985	-9.59488
▁멕시코	-9.59492
람	-9.59495
블	-9.595
▁길이	-9.59618
기에	-9.59727
▁편성	-9.59734
▁전통	-9.59832
▁문자	-9.5986
▁제품	-9.59969
▁식물	-9.59988
▁표기	-9.60011
춘	-9.60093
▁우리	-9.60144
ro	-9.60174
시키고	-9.60259
▁참여	-9.60362
▁극	-9.60375
▁통과	-9.60423
협회	-9.60485
re	-9.60486
▁각종	-9.6051
▁만들	-9.6051
▁나가	-9.60552
▁것도	-9.60577
z	-9.60585
▁발사	-9.60634
▁못한	-9.60639
▁광주	-9.6064
▁사진	-9.60744
▁오후	-9.60828
▁인정	-9.61214
▁디자인	-9.6125
력을	-9.61304
▁프로젝트	-9.61366
ur	-9.61533
▁60	-9.61571
▁일제	-9.61587
▁적이	-9.61768
▁조정	-9.61821
▁폴	-9.61852
▁적용	-9.61939
x	-9.61951
▁눈	-9.61954
el	-9.61994
▁나무	-9.62024
▁접	-9.62062
r	-9.62068
센터	-9.6208
70	-9.62094
되자	-9.62132
▁않아	-9.6216
▁합	-9.6218
▁확대	-9.62326
▁가능한	-9.62336
하다가	-9.62426
氏	-9.62455
▁유일한	-9.62485
▁독	-9.62499
스크	-9.62535
군을	-9.62547
▁확인	-9.62569
▁왔다	-9.62598
▁구단	-9.62637
▁학	-9.62707
▁내부	-9.62737
▁중화인민공화국	-9.62878
▁감소	-9.62918
▁제한	-9.62957
▁더불어	-9.63008
▁사랑	-9.6301
대를	-9.63073
▁브라질	-9.63214
▁제도	-9.63222
▁이용하여	-9.63354
▁강한	-9.63404
▁핵	-9.63481
▁지정	-9.63663
▁정책	-9.63682
it	-9.63692
▁경우에는	-9.63736
팔	-9.63748
▁부여	-9.63751
농	-9.63762
▁번역	-9.63781
▁학생	-9.63885
▁작가	-9.639
기로	-9.63952
▁집합	-9.64209
▁개최	-9.64232
혜	-9.64267
』	-9.64331
▁비디오	-9.64353
▁제조	-9.6436
es	-9.6437
▁대상	-9.64492
기관	-9.64496
▁상태	-9.6451
▁디지털	-9.64514
▁제공	-9.64657
▁문제가	-9.64755
자리	-9.64776
ad	-9.6481
릉	-9.64826
▁아니다	-9.64845
▁개혁	-9.64903
▁신라	-9.64969
팅	-9.64985
▁행사	-9.65024
명은	-9.65039
▁가까운	-9.65057
▁분리	-9.65138
▁불린다	-9.65156
▁한국의	-9.65207
자와	-9.65229
90	-9.65262
▁평화	-9.653
▁엘	-9.6531
▁경기를	-9.6536
라고도	-9.65393
▁and	-9.65394
▁졸업	-9.65419
션	-9.65446
▁교회	-9.65453
명으로	-9.65484
▁교통	-9.65556
▁필요한	-9.65596
▁팀의	-9.65623
전에서	-9.65727
w	-9.65876
▁록	-9.65891
》,	-9.65926
▁1982	-9.65958
▁런던	-9.65984
▁임명	-9.66018
돈	-9.66021
▁마리	-9.66123
▁폰	-9.66149
세를	-9.66266
人	-9.66287
▁충청남도	-9.66304
한다는	-9.66318
▁시행	-9.66329
24	-9.66347
▁낮은	-9.66359
▁지도	-9.66369
▁홈	-9.66376
▁만들었다	-9.66437
▁하이	-9.66444
▁특별	-9.66495
칠	-9.66527
▁국회의원	-9.66616
?	-9.66776
▁결합	-9.66781
▁요시	-9.66784
운동	-9.66789
▁항	-9.66845
습	-9.66875
▁문제를	-9.66955
▁방어	-9.66963
▁망	-9.66981
▁의원	-9.66988
▁정식	-9.66992
天	-9.67024
▁구조를	-9.67093
장이	-9.67109
▁조성	-9.67197
▁돈	-9.67209
▁어린	-9.67269
▁개통	-9.67303
▁국경	-9.67411
▁함수	-9.67412
▁남쪽	-9.67535
움	-9.67539
▁정부는	-9.67551
리는	-9.67578
참	-9.67582
▁떠나	-9.67622
▁관계를	-9.67643
▁안에	-9.67724
▁1983	-9.67769
中	-9.67897
▁만들어진	-9.68176
法	-9.68203
곤	-9.68261
▁경영	-9.68276
효	-9.68301
▁삼성	-9.68318
▁전환	-9.68356
장으로	-9.68359
▁표시	-9.68428
▁아직	-9.68476
▁설정	-9.68493
▁앞	-9.68533
▁일어난	-9.68599
▁말을	-9.68621
ia	-9.68634
▁활약	-9.68886
▁의사	-9.69027
▁바탕으로	-9.69082
▁강원도	-9.69106
▁점령	-9.69145
검	-9.69153
관리	-9.69153
▁전투에서	-9.69155
▁스웨덴	-9.69201
▁실제로	-9.69227
▁캐릭터	-9.69228
▁촬영	-9.69234
▁정치적	-9.69299
▁만약	-9.69389
▁신문	-9.69416
▁뒤에	-9.69474
▁비판	-9.69476
레스	-9.69529
균	-9.69568
▁회사	-9.6965
침	-9.69716
간의	-9.69749
▁둘	-9.69838
▁기존	-9.69843
함을	-9.69845
월까지	-9.69864
▁되었으며	-9.6989
▁머리	-9.69982
▁승	-9.70038
▁작업	-9.701
혼	-9.70107
▁북한	-9.70138
▁MBC	-9.70139
▁터키	-9.70176
▁고등학교	-9.70217
寺	-9.70236
씩	-9.7025
▁올랐다	-9.70324
긴	-9.70358
▁사실을	-9.70368
▁출신의	-9.70391
였으며	-9.70517
▁기후	-9.70568
▁만나	-9.70572
푸	-9.70623
▁경쟁	-9.70703
et	-9.70717
▁주었다	-9.70787
▁작전	-9.7079
냐	-9.70875
▁계산	-9.70876
▁반면	-9.70921
▁The	-9.70927
宗	-9.70933
▁그해	-9.70944
▁새로	-9.71021
▁지역을	-9.71073
▁충돌	-9.71128
군이	-9.71143
▁멤버	-9.71153
조선	-9.71236
▁/	-9.71259
점을	-9.7129
았다	-9.71346
▁터	-9.71392
▁뿐만	-9.71408
▁교체	-9.7142
▁그림	-9.71479
▁기계	-9.71553
▁위치	-9.71571
▁기존의	-9.71588
▁후반	-9.71618
▁지하	-9.71655
▁본래	-9.71667
▁판단	-9.71682
▁지적	-9.71687
임을	-9.71766
위로	-9.71774
▁의미	-9.71855
정부	-9.7189
27	-9.71932
▁해외	-9.71941
▁연장	-9.71953
▁위치해	-9.71955
▁발달	-9.7196
▁제외한	-9.71969
▁천황	-9.71972
▁위의	-9.71981
▁설명	-9.71992
▁가리키는	-9.72086
▁중간	-9.72091
48	-9.7225
일본	-9.72253
리스	-9.72297
▁간의	-9.72309
골을	-9.72313
▁오브	-9.72352
▁기록을	-9.724
▁땅	-9.72404
▁잡	-9.72504
▁직	-9.7257
▁아일랜드	-9.72596
▁이적	-9.72695
▁풀	-9.72701
▁사람은	-9.72704
▁지휘	-9.72726
▁아니	-9.72787
▁나중에	-9.72787
▁수정	-9.72828
▁들어가	-9.72837
▁[	-9.72839
으나	-9.72843
▁반란	-9.72851
▁일이	-9.72968
▁대회에서	-9.72995
플	-9.73022
▁행동	-9.7316
시킨	-9.73193
쉬	-9.73215
26	-9.73221
▁물론	-9.73228
▁최고의	-9.73368
▁철도역	-9.73404
상의	-9.73549
▁사용되는	-9.73599
▁소개	-9.73644
▁조지	-9.7369
▁감독의	-9.73771
쳐	-9.73773
▁항상	-9.73872
영화	-9.73873
갑	-9.73903
▁범	-9.74039
이라고도	-9.74124
▁실행	-9.7415
▁1979	-9.74259
▁제임스	-9.74273
액	-9.74274
거리	-9.74315
니아	-9.74351
하려는	-9.74492
▁월드	-9.74545
▁개선	-9.74564
▁1981	-9.74635
▁문서	-9.74671
▁동생	-9.74771
년대에	-9.74822
튼	-9.74864
▁타이	-9.74872
▁탈	-9.75089
▁하기	-9.75113
▁통하여	-9.75117
▁참가	-9.75125
▁기능을	-9.75134
사의	-9.75199
▁있었지만	-9.75248
▁뉴	-9.75305
▁일종이다	-9.75313
산업	-9.75437
줄	-9.75441
▁마리아	-9.7546
▁처	-9.75473
21	-9.75477
▁만드는	-9.75504
▁인한	-9.7551
▁경찰	-9.75511
사업	-9.75529
▁일반적인	-9.75625
▁웹	-9.75696
▁공급	-9.75697
▁종료	-9.75779
▁1972	-9.75934
▁보도	-9.75942
▁외부	-9.75946
▁생활을	-9.76018
▁엔	-9.76058
▁등에서	-9.7606
▁작	-9.76066
▁궤도	-9.7608
압	-9.76136
되었는데	-9.76169
▁녹음	-9.76228
제를	-9.76265
들로	-9.76298
틀	-9.7645
▁de	-9.76493
▁사람을	-9.76576
였고	-9.76578
었으며	-9.76622
▁뉴스	-9.76713
혈	-9.76714
겐	-9.76749
앙	-9.76838
스와	-9.76869
▁스위스	-9.76873
▁작곡	-9.76897
▁자리	-9.76971
▁훈련	-9.77017
▁시민	-9.77019
▁의해서	-9.77023
▁선정	-9.77023
▁급	-9.77043
▁파일	-9.77106
▁시장	-9.77169
▁말이다	-9.77203
화를	-9.77246
正	-9.77261
▁밖에	-9.77278
▁보면	-9.77321
▁부대	-9.77339
척	-9.77415
틴	-9.77452
▁인수	-9.77461
▁제작된	-9.77489
▁능	-9.77495
▁여전히	-9.77577
28	-9.77679
존	-9.7772
▁사용하여	-9.77724
▁시험	-9.77743
▁그래서	-9.77756
▁전개	-9.77764
▁대륙	-9.77799
▁완성	-9.77836
▁본관은	-9.77844
대의	-9.77852
▁쉽게	-9.77877
▁붕괴	-9.77913
▁하자	-9.7796
▁장치	-9.7797
학년	-9.78026
id	-9.78037
▁금지	-9.78056
으로써	-9.78091
▁1973	-9.78131
▁중국의	-9.78186
29	-9.78242
▁투수	-9.7829
▁승격	-9.78292
올	-9.783
▁잡지	-9.78306
▁핀란드	-9.7833
▁동쪽	-9.7833
▁반응	-9.78354
▁전달	-9.78395
▁경험	-9.7845
▁시작되었다	-9.78455
▁갖춘	-9.78509
▁내에서	-9.78532
▁방영	-9.78731
▁동계	-9.78738
지역	-9.78753
▁잔	-9.78782
▁나온	-9.78835
▁시기에	-9.78859
▁언론	-9.78889
▁주는	-9.78922
▁무장	-9.78965
▁단체	-9.7899
몬	-9.78996
▁인물	-9.79006
로써	-9.7901
▁노력	-9.79047
돼	-9.79102
탑	-9.79178
세기에	-9.79284
▁낙	-9.79298
▁설립된	-9.79348
▁종합	-9.79374
▁선언	-9.79448
수가	-9.79468
▁시대의	-9.79515
착	-9.79576
▁둔	-9.79591
▁경우도	-9.79597
▁태어난	-9.79629
수를	-9.79639
▁대체	-9.79683
▁정부의	-9.79696
▁협력	-9.79703
un	-9.79722
▁전차	-9.79786
▁내려	-9.79813
응	-9.79827
▁매년	-9.79834
단체	-9.7985
07	-9.79966
스가	-9.8008
▁32	-9.80092
▁폭	-9.80099
▁검	-9.801
▁가는	-9.80104
▁떨어져	-9.80187
▁외에도	-9.80207
▁승리를	-9.80216
▁취	-9.80295
▁접근	-9.80411
▁사용한	-9.80425
▁오사카	-9.80516
▁울	-9.80534
23	-9.80545
측	-9.80619
▁가톨릭	-9.80627
川	-9.80683
▁자리를	-9.80694
▁무기	-9.80714
엽	-9.80741
▁묘	-9.80751
▁헝가리	-9.80773
元	-9.80779
▁뒤를	-9.80813
▁센터	-9.80858
▁사실상	-9.80919
▁수립	-9.80983
지고	-9.81056
▁대해서	-9.81126
▁기사	-9.81167
▁중단	-9.81181
▁강력한	-9.8122
▁조약	-9.81231
▁이해	-9.81264
▁실시	-9.81316
덴	-9.81376
▁힘	-9.81382
버스	-9.81421
▁계약을	-9.81469
사회	-9.81508
▁수학	-9.81538
▁형제	-9.81544
▁본선	-9.81553
▁주장했다	-9.81565
▁관심을	-9.81615
교회	-9.81617
기술	-9.81724
▁유리	-9.81744
▁시설	-9.81771
▁항성	-9.8179
as	-9.81852
▁점차	-9.8188
▁필리핀	-9.81886
▁침공	-9.81917
平	-9.81937
닝	-9.81937
▁찾아	-9.81959
육	-9.81968
▁출시	-9.81971
▁사회주의	-9.82002
▁글	-9.82026
▁발행	-9.82029
▁보존	-9.82142
▁in	-9.82143
걸	-9.8217
했기	-9.82219
탁	-9.82236
▁쓰인다	-9.82246
▁속에서	-9.82384
님	-9.82384
클	-9.82449
장은	-9.82489
▁필요	-9.82521
▁옮겨	-9.82535
▁뜻이	-9.82538
▁이루어진	-9.82608
▁플레이	-9.82632
▁최근	-9.82671
▁음력	-9.82701
▁저항	-9.82743
하려고	-9.8275
▁은퇴	-9.8277
▁공격을	-9.82962
컵	-9.82964
公	-9.82981
되었지만	-9.83028
경제	-9.83123
▁대형	-9.83138
▁500	-9.83216
▁양식	-9.83268
▁속에	-9.83322
▁1974	-9.83327
▁허용	-9.83364
▁해방	-9.83429
▁대립	-9.8343
선을	-9.83469
▁실패	-9.83489
▁설치되어	-9.83501
회사	-9.83711
▁이끄는	-9.83786
▁비행	-9.83795
▁엔진	-9.8386
▁농	-9.83863
십	-9.83877
▁초등학교이다	-9.83906
▁나서	-9.83921
▁신경	-9.83992
▁대응	-9.84066
▁치료	-9.84128
▁끝	-9.84145
▁농업	-9.84151
▁유명	-9.84266
▁사람들은	-9.84283
▁받는	-9.84435
事	-9.84454
몽	-9.84517
젠	-9.84524
▁태평양	-9.84587
차원	-9.84602
▁계승	-9.84653
▁위치한다	-9.84661
▁이집트	-9.84698
▁정보를	-9.84718
▁출판	-9.84719
벽	-9.84721
▁임시	-9.84759
진다	-9.84772
폭	-9.84803
▁다섯	-9.84841
▁친구	-9.84847
Z	-9.84857
▁1976	-9.84906
▁작용	-9.84942
▁증	-9.8497
▁임명되었다	-9.84987
)》	-9.84991
▁구역	-9.84991
▁너무	-9.84993
사로	-9.8508
베르	-9.85083
▁측정	-9.85097
▁유로	-9.8511
▁개봉한	-9.85146
▁인기를	-9.85172
딩	-9.85183
랜드	-9.852
▁화학	-9.85235
▁a	-9.85237
▁버전	-9.85367
▁비교적	-9.85377
▁형태	-9.85406
▁류	-9.85412
▁지도자	-9.85618
▁폭발	-9.85905
▁세웠다	-9.85934
▁병력	-9.85947
長	-9.85952
▁구분	-9.85972
▁1920	-9.86011
▁1978	-9.86021
협	-9.86053
▁방식으로	-9.86136
)"	-9.86152
▁기자	-9.86172
▁세운	-9.86206
▁좌	-9.86219
▁이전에	-9.86306
▁시의	-9.86326
▁뛰어난	-9.86381
▁때에는	-9.86478
▁인민	-9.86521
▁잠시	-9.86527
엘	-9.86556
▁형식	-9.86643
-2	-9.86697
01	-9.86702
▁발표했다	-9.8673
▁규정	-9.86787
▁선의	-9.86816
▁발견된다	-9.86827
▁죽은	-9.86897
▁종종	-9.86934
▁다이	-9.86942
법을	-9.86947
▁네트워크	-9.86987
▁콜	-9.86997
▁윌리엄	-9.87079
▁재직	-9.8716
▁여행	-9.8721
▁시대에	-9.87335
▁이스라엘	-9.87375
▁물질	-9.87405
▁s	-9.87484
▁노동	-9.87583
▁공군	-9.87614
▁여름	-9.87639
▁민주당	-9.87664
▁케	-9.87675
▁윈도우	-9.87718
▁부문	-9.87777
▁거주	-9.87822
▁직후	-9.87868
▁방문	-9.8789
▁기대	-9.87896
▁나오는	-9.87922
▁이것이	-9.87928
▁1971	-9.87939
칭	-9.87948
▁얼마	-9.87953
▁하루	-9.87992
um	-9.88009
▁수입	-9.88017
▁활용	-9.88039
▁포르투갈	-9.88045
▁폐지	-9.88052
▁빌	-9.88058
▁해체	-9.88069
▁태어나	-9.88088
▁앤	-9.8815
▁1975	-9.88176
▁1930	-9.88183
▁1968	-9.88192
지로	-9.88221
▁알고	-9.88223
▁귀족	-9.88246
▁자신을	-9.8827
▁연맹	-9.88299
징	-9.88364
▁회복	-9.8842
▁1963	-9.88488
▁원정	-9.88489
글	-9.88497
▁영상	-9.88547
▁크	-9.88572
22	-9.88576
▁아르헨티나	-9.88599
st	-9.886
▁80	-9.88614
▁언급	-9.88636
직을	-9.88644
▁무역	-9.88671
▁흔히	-9.8871
▁1940	-9.88742
그룹	-9.88751
▁메이저	-9.88815
▁힘을	-9.88859
▁녹	-9.88923
이므로	-9.88943
▁잠	-9.88985
레이	-9.89034
▁오늘날	-9.89059
▁퍼	-9.89094
▁인간의	-9.89199
국가	-9.89259
86	-9.89287
▁사회적	-9.89316
싱	-9.8935
▁해안	-9.89358
▁담당	-9.89364
▁지대	-9.89401
09	-9.89464
▁맞	-9.89497
▁박사	-9.89604
▁장기	-9.89633
▁국회	-9.89659
ic	-9.8971
一	-9.89725
▁유명하다	-9.89731
▁&	-9.89757
▁전라북도	-9.8976
▁이래	-9.89771
▁구간	-9.89804
▁b	-9.89811
▁않을	-9.89825
▁지상	-9.89854
▁연대	-9.89876
▁아내	-9.89898
었던	-9.89918
▁내용을	-9.89936
▁군주	-9.89966
▁슈퍼	-9.90014
▁70	-9.90014
▁응	-9.90029
▁뇌	-9.90128
▁거리	-9.90133
▁통신	-9.90161
능	-9.90185
▁씨	-9.90209
at	-9.90272
▁논	-9.90275
▁발매되었다	-9.90394
▁1969	-9.9044
▁휴	-9.90451
▁아무	-9.90488
릭	-9.90497
▁장군	-9.90499
▁있었으나	-9.90526
하나	-9.90531
▁상호	-9.9056
▁몽골	-9.90612
▁쌍	-9.90632
시킬	-9.90667
▁등장하는	-9.90687
海	-9.90708
00	-9.90884
▁사람의	-9.90914
▁영토	-9.90923
▁보이는	-9.90926
율	-9.91005
▁올라	-9.91039
▁코드	-9.91054
▁통한	-9.91058
▁중화민국	-9.91112
▁여객철도	-9.91121
▁대사	-9.91142
▁지진	-9.9117
▁다리	-9.91211
▁제정	-9.91239
▁선출	-9.91258
▁젊은	-9.91269
▁채널	-9.91309
▁체결	-9.91313
카와	-9.91336
▁생성	-9.91358
▁있었으며	-9.91364
45	-9.91404
▁했지만	-9.91422
▁성인	-9.9144
인이	-9.91457
▁획득	-9.91472
식을	-9.91524
▁평양	-9.9158
▁등은	-9.91612
▁홀	-9.91614
▁거부	-9.91627
▁카드	-9.91749
▁사용되었다	-9.91753
▁팀은	-9.91792
▁구성된	-9.918
로스	-9.91803
▁그런	-9.91807
35	-9.91815
▁외에	-9.91904
▁이후에	-9.91963
▁1948	-9.9201
▁아주	-9.92074
ir	-9.92156
공사	-9.92164
롱	-9.92168
_2	-9.92173
te	-9.92179
▁오전	-9.92183
▁범죄	-9.92192
▁저장	-9.92226
▁가능	-9.92228
되었던	-9.92245
&	-9.92309
▁전혀	-9.92344
▁입단	-9.92359
▁해결	-9.92397
음악	-9.9242
▁방향	-9.9244
▁어떻게	-9.92445
▁단위	-9.92454
▁대상으로	-9.92499
군에	-9.92588
▁의회	-9.92638
ine	-9.92639
성과	-9.92773
우스	-9.92877
서를	-9.92907
v	-9.92908
▁차례	-9.92919
▁꽃	-9.92929
▁따	-9.92939
들도	-9.92961
랄	-9.92962
시아	-9.92983
▁가족	-9.9301
▁염	-9.93034
▁집중	-9.93164
▁전시	-9.93189
한국	-9.93227
▁즉위	-9.93239
▁이론	-9.93245
▁출생	-9.93264
▁정신	-9.93285
▁휘	-9.9329
▁도움을	-9.93291
▁이란	-9.93299
▁일본에서	-9.93433
▁협회	-9.93548
▁표면	-9.93676
동음이의	-9.93679
나라	-9.93695
▁기념	-9.93708
잔	-9.93712
▁보급	-9.93724
▁복귀	-9.93749
▁내각	-9.93885
텐	-9.93903
▁과정을	-9.93932
▁미군	-9.93964
세대	-9.93971
▁통제	-9.94018
▁하면서	-9.94045
▁Z	-9.9405
▁경주	-9.94054
▁짧은	-9.94105
▁인하여	-9.94142
▁형태의	-9.94146
계의	-9.94229
▁?	-9.94303
폰	-9.94384
▁마사	-9.94446
05	-9.94457
▁업무	-9.94461
學	-9.94483
▁오르	-9.94575
▁세력	-9.94583
▁육상	-9.94592
욱	-9.94613
▁소유	-9.94627
▁지낸	-9.94653
▁1946	-9.9471
콘	-9.94787
▁하는데	-9.94847
ter	-9.94951
▁곳	-9.94975
은행	-9.94981
문을	-9.95016
ot	-9.95029
▁비밀	-9.95031
어로	-9.95103
닌	-9.95141
▁뜻한다	-9.9515
▁북쪽으로	-9.95174
▁되지	-9.95197
+	-9.95206
셔	-9.95216
▁없어	-9.95236
▁미사일	-9.95265
▁p	-9.95294
▁운	-9.95297
에게서	-9.95327
成	-9.95361
이었고	-9.95381
▁됐다	-9.95436
기의	-9.95472
▁역사상	-9.95511
99	-9.95513
▁우크라이나	-9.956
▁뜻을	-9.9561
▁연극	-9.95679
▁제거	-9.95694
▁제안	-9.9571
▁내에	-9.95797
▁1977	-9.95834
▁1964	-9.95889
▁참여하였다	-9.95914
▁300	-9.95921
전을	-9.95971
▁지역은	-9.95988
적이고	-9.96
▁홍콩	-9.96018
한다고	-9.96025
시마	-9.96032
▁지나	-9.96041
정보	-9.96059
▁되면서	-9.96174
▁산맥	-9.96174
▁맡고	-9.96323
▁격	-9.96333
▁앞서	-9.96361
▁유도	-9.96391
55	-9.96406
▁득점	-9.96408
▁했으나	-9.96607
明	-9.96635
사와	-9.96646
왔다	-9.96728
▁일정	-9.96808
▁위성	-9.96839
▁없고	-9.96855
혁	-9.96914
▁북쪽	-9.96915
▁점에서	-9.96975
▁루이	-9.96989
▁얻었다	-9.97001
▁1962	-9.97112
▁검사	-9.97154
굴	-9.97165
시설	-9.97166
▁프	-9.9719
▁한다고	-9.97195
▁개정	-9.97215
37	-9.97296
▁있었는데	-9.97314
▁장식	-9.97336
▁부정	-9.97371
▁보수	-9.97385
▁동일한	-9.97466
▁가스	-9.97486
까	-9.97512
36	-9.97535
▁바다	-9.97585
▁마음	-9.97636
▁경계	-9.97641
벤	-9.97774
▁소장	-9.97776
"(	-9.97895
il	-9.97977
▁과정	-9.9799
▁가문	-9.97999
▁현실	-9.98042
▁브	-9.98051
▁출발	-9.98062
▁II	-9.98067
▁부터	-9.98093
수는	-9.98126
08	-9.98146
▁증명	-9.9816
없이	-9.98231
▁공사	-9.98248
義	-9.98256
▁넓은	-9.98288
헤	-9.98371
▁나이	-9.98409
▁흑	-9.9842
▁미술	-9.9843
▁좋아	-9.98447
▁에이	-9.98462
▁장비	-9.9853
▁특수	-9.98547
65	-9.98581
이기	-9.98704
▁왕국	-9.98713
98	-9.98732
▁요청	-9.98818
▁다카	-9.98851
▁하게	-9.98852
▁정도의	-9.98855
▁우선	-9.98857
▁주인공	-9.98872
▁추정된다	-9.98901
▁가입	-9.98998
▁단어	-9.98998
▁묘사	-9.99057
▁온라인	-9.99062
▁적은	-9.99082
슬	-9.99084
▁확보	-9.99092
▁요한	-9.99105
▁은행	-9.99141
▁국왕	-9.99157
▁성격	-9.99164
▁범위	-9.99194
▁자체	-9.99222
▁1967	-9.99243
(15	-9.99305
세포	-9.99353
찰	-9.99389
▁오픈	-9.99409
▁광고	-9.99427
▁민주	-9.9945
▁발표한	-9.99456
▁그에게	-9.99466
▁진화	-9.99468
▁개편	-9.99475
西	-9.9948
▁정권	-9.99533
▁고종	-9.99539
감을	-9.99663
32	-9.9967
▁1949	-9.99689
▁사용하고	-9.99714
▁한때	-9.99727
▁마드리드	-9.99759
▁멸망	-9.99764
▁예선	-9.9977
▁보였다	-9.99812
34	-9.99839
陽	-9.99852
▁이끌고	-9.99863
▁오히려	-9.99871
06	-9.99889
▁불러	-9.99918
▁달러	-9.99941
▁약간	-10.0013
33	-10.0016
31	-10.002
▁당시의	-10.0021
▁등록	-10.0025
▁충	-10.0027
85	-10.0027
▁전용	-10.003
▁관할한다	-10.003
38	-10.0033
▁권력	-10.0036
▁건강	-10.0041
었는데	-10.0042
▁세계에서	-10.0042
킹	-10.0047
上	-10.0049
▁담	-10.0054
▁캐	-10.0057
벨	-10.006
▁은하	-10.0065
개발	-10.0067
▁잇는	-10.0067
▁작성	-10.0069
사는	-10.0075
▁이사	-10.0076
과학	-10.0077
man	-10.0083
▁생물	-10.0083
▁곳에서	-10.0083
(16	-10.0085
쥐	-10.0087
德	-10.0088
▁베이징	-10.0089
▁f	-10.0091
▁통해서	-10.0093
▁그리	-10.0107
모토	-10.0113
함에	-10.0115
▁반도	-10.0121
▁효	-10.0124
▁만큼	-10.0125
▁했고	-10.0126
화가	-10.0127
▁비난	-10.0128
▁기반으로	-10.013
▁사이트	-10.013
으면	-10.0133
▁외교	-10.0143
▁팀이	-10.0145
▁LG	-10.0146
▁잎	-10.0149
▁지금의	-10.0155
로서의	-10.0155
▁사후	-10.0158
▁속한다	-10.0159
▁공산당	-10.0166
▁받지	-10.0169
력이	-10.017
▁인근	-10.0174
▁c	-10.0174
▁다르다	-10.0175
▁숲	-10.0178
▁미디어	-10.0178
▁동료	-10.0184
▁35	-10.0184
부대	-10.0185
▁기구	-10.0188
▁도착	-10.0192
▁예상	-10.0196
▁칠	-10.0196
보다는	-10.0198
죄	-10.02
▁기원	-10.0202
04	-10.0205
킨	-10.0206
▁칭	-10.0217
▁이번	-10.0219
▁투자	-10.0221
었으나	-10.0221
▁하였고	-10.0225
▁지속	-10.023
▁포지션은	-10.0231
▁콘	-10.0234
▁앞에	-10.0235
▁관찰	-10.0238
▁축	-10.0242
▁CD	-10.0242
▁제기	-10.0244
▁오랜	-10.0245
대가	-10.0248
64	-10.0249
▁철학	-10.0251
▁장관	-10.0255
▁투표	-10.0269
▁차지했다	-10.0269
▁헨리	-10.0273
▁왕조	-10.029
°	-10.0293
高	-10.0296
▁Re	-10.0296
▁이후에는	-10.0298
▁합의	-10.0299
▁1965	-10.0301
▁역대	-10.0303
75	-10.0306
▁성적	-10.0307
▁SBS	-10.0311
렸다	-10.0311
세계	-10.0312
▁모스크바	-10.0314
_5	-10.0316
▁대규모	-10.0317
뉴	-10.0318
▁팬	-10.032
95	-10.032
▁흡수	-10.0321
▁원자	-10.0324
石	-10.0325
시즌	-10.0328
▁에도	-10.0336
▁간주	-10.0338
▁공원	-10.0343
▁대기	-10.0346
비아	-10.0351
▁1961	-10.036
▁계급	-10.0361
대회	-10.0363
▁보냈다	-10.0373
▁살고	-10.0374
▁회전	-10.0377
하고자	-10.0378
칼	-10.0382
폐	-10.0385
▁학문	-10.0391
▁상황	-10.0403
▁보아	-10.0405
▁주교	-10.0406
원을	-10.0409
▁시간이	-10.0409
▁사용자	-10.0409
▁성립	-10.0409
▁시작한	-10.0414
▁중세	-10.042
스케	-10.042
▁편집	-10.0424
▁라인	-10.0425
▁이르는	-10.0425
▁패배	-10.0426
▁스코틀랜드	-10.0427
▁대수	-10.0433
▁이용해	-10.0436
▁사는	-10.0438
▁정부가	-10.0439
얼	-10.0445
▁경기에	-10.0446
▁엄	-10.0448
▁변호사	-10.0449
세에	-10.0451
▁피해	-10.0462
▁수용	-10.0463
시킨다	-10.0463
▁총리	-10.0464
▁탑	-10.0469
▁목적	-10.0473
루스	-10.0477
지도	-10.0479
88	-10.048
▁차이가	-10.0484
▁벨기에	-10.0486
▁전쟁이	-10.0495
▁해당하는	-10.0497
▁합병	-10.0498
▁훨씬	-10.05
▁근무	-10.0504
▁벨	-10.0505
▁남편	-10.0509
ation	-10.051
▁Y	-10.051
▁되면	-10.0512
받았다	-10.0514
▁체포	-10.0523
▁공개된	-10.0523
▁규모	-10.0529
▁했으며	-10.0532
연대	-10.0535
▁회의	-10.0541
▁사망했다	-10.0543
▁발생한	-10.0547
홀	-10.0547
▁술	-10.0548
▁왜	-10.0549
▁해서	-10.0557
▁넘어	-10.0558
▁동맹	-10.0565
▁암살	-10.0579
▁이슬람	-10.0584
▁입장	-10.0584
학과	-10.0585
▁청나라	-10.0586
▁1966	-10.0588
멘	-10.0589
▁마련	-10.0593
ion	-10.0595
▁교토	-10.0602
▁수사	-10.0605
▁정복	-10.0607
68	-10.0609
▁활동하였다	-10.0609
▁전력	-10.0613
지방	-10.0617
▁뜻	-10.0619
연구	-10.0621
▁그것은	-10.0624
▁고전	-10.0625
▁탄	-10.0629
軍	-10.0633
▁공식적으로	-10.0634
56	-10.0637
▁군인	-10.0642
▁공포	-10.0644
▁높이는	-10.0644
▁기억	-10.0644
쪽	-10.0645
▁계열	-10.0645
▁운용	-10.0651
▁위해서는	-10.0662
연합	-10.0662
섭	-10.0663
화된	-10.0664
▁기획	-10.0664
▁족	-10.067
▁수출	-10.067
에게는	-10.0671
▁에피소드	-10.0671
▁오래된	-10.0673
▁레코드	-10.0675
家	-10.0681
▁고구려	-10.0682
▁위협	-10.0682
▁권리	-10.0685
▁타고	-10.0688
경기에	-10.0691
行	-10.0697
▁충청북도	-10.0699
▁입학	-10.0699
光	-10.07
웨이	-10.0701
제도	-10.0704
▁외국	-10.0708
▁서쪽	-10.0708
▁왼쪽	-10.071
치는	-10.0719
57	-10.0725
▁시각	-10.0726
▁이탈리아의	-10.0728
이었으며	-10.0729
▁이용한	-10.0733
武	-10.0735
밍	-10.0738
▁기록하였다	-10.0739
部	-10.0739
드는	-10.0743
▁그것을	-10.0745
▁크기	-10.0747
▁출장	-10.0753
▁워싱턴	-10.0753
▁전주	-10.0757
▁가능성이	-10.0761
부를	-10.0761
▁혼	-10.0762
▁이미지	-10.0763
▁회장	-10.0765
▁선수들	-10.0765
▁유나이티드	-10.0771
▁남북	-10.0773
▁브랜드	-10.0774
▁결성	-10.0775
타이	-10.0777
▁이유	-10.0778
▁처음에는	-10.0787
北	-10.0787
▁부산광역시	-10.0787
'(	-10.0788
▁아메리카	-10.0791
▁베르	-10.0805
▁대표팀	-10.0807
사에	-10.0808
▁보장	-10.0809
▁계획을	-10.081
▁지원을	-10.081
am	-10.0816
도시	-10.0817
▁연재	-10.0818
▁그런데	-10.0818
▁포함되어	-10.0823
▁때부터	-10.0824
▁비록	-10.0825
지가	-10.0829
▁무렵	-10.0831
▁나치	-10.0839
무라	-10.0839
77	-10.0839
▁방향으로	-10.0847
▁재정	-10.0848
정치	-10.0849
▁얻어	-10.0852
書	-10.0853
▁희	-10.0858
선이	-10.0868
to	-10.0869
자들은	-10.0871
탕	-10.0873
라이	-10.0876
▁빠른	-10.0877
▁400	-10.0877
▁행위	-10.0877
▁핵심	-10.0878
▁구축	-10.0878
용으로	-10.088
▁영입	-10.0885
▁안정	-10.0886
스를	-10.0891
▁강제	-10.0893
▁인사	-10.0896
▁이것을	-10.0897
▁프로그램이다	-10.0898
ne	-10.0912
▁블랙	-10.0914
lo	-10.0916
지원	-10.0916
▁때에	-10.0918
▁분야	-10.0921
▁채용	-10.0924
문학	-10.0924
▁영향력	-10.0926
▁솔로	-10.0926
▁수록	-10.0927
▁근대	-10.0931
▁거대한	-10.0942
시장	-10.0942
▁결과를	-10.0943
륜	-10.0946
▁이유는	-10.0947
▁덴마크	-10.0949
▁전후	-10.095
ᆞ	-10.095
이던	-10.0951
▁러시아의	-10.0955
▁사망하였다	-10.0958
▁길이는	-10.0964
▁저서	-10.0965
▁관할	-10.0966
펜	-10.0968
▁오른쪽	-10.0973
▁운전	-10.0981
성은	-10.0984
=	-10.099
▁90	-10.0993
다이	-10.1001
빛	-10.1004
地	-10.1004
▁고정	-10.1008
▁봄	-10.1011
▁대중	-10.1018
라운드	-10.102
▁백작	-10.1027
▁단계	-10.103
▁두었다	-10.1034
▁탑재	-10.104
▁현상	-10.1041
▁이야기를	-10.1043
▁방출	-10.1044
▁자는	-10.1044
▁썼다	-10.105
▁공기	-10.1054
▁번째로	-10.1055
▁예정	-10.1056
▁특	-10.1057
47	-10.106
▁시작하여	-10.1062
▁카를	-10.1064
▁주제	-10.1064
▁수가	-10.1065
▁제어	-10.1066
46	-10.1069
郡	-10.107
지게	-10.1071
▁기초	-10.1072
5%	-10.1075
▁전쟁을	-10.1084
▁현재까지	-10.1087
▁도중	-10.1088
▁분자	-10.1088
▁지식	-10.1091
▁요소	-10.1092
▁상당히	-10.1093
▁국도	-10.1095
전에	-10.1095
▁소비에트	-10.1101
▁군대	-10.1104
▁돌아가	-10.1115
▁항공기	-10.1121
03	-10.1124
39	-10.1124
▁1944	-10.1125
▁체계	-10.113
▁금속	-10.1136
▁안전	-10.1137
사건	-10.1139
▁정착	-10.114
▁회원	-10.1141
▁역임했다	-10.1143
▁팀을	-10.1144
▁보는	-10.1146
▁플랫폼	-10.1147
▁뜻으로	-10.1148
▁타이완	-10.1151
▁받게	-10.1156
▁1941	-10.1156
▁세워	-10.1158
▁맨	-10.116
▁체제	-10.117
델	-10.1172
▁방법	-10.1172
▁다수	-10.1173
▁태풍	-10.1174
水	-10.1181
공원	-10.1181
▁알게	-10.1183
▁제시	-10.1192
▁특성	-10.1196
▁=	-10.1196
딘	-10.1199
▁응용	-10.12
▁하면	-10.1204
▁공주	-10.1205
▁유엔	-10.1207
▁호텔	-10.1207
▁배경	-10.1208
▁궁	-10.1208
▁추정	-10.121
▁그러한	-10.1214
▁소년	-10.1214
▁승인	-10.1215
셀	-10.1218
ol	-10.1219
89	-10.122
▁바이	-10.1224
_4	-10.1225
▁함대	-10.1226
▁취임	-10.1229
▁이중	-10.123
풀	-10.1231
동안	-10.1233
▁마르	-10.1235
▁직업	-10.1239
▁엔터테인먼트	-10.1242
다고	-10.1243
▁망명	-10.1247
▁예수	-10.1257
▁후지	-10.1262
44	-10.1269
▁상륙	-10.1271
ly	-10.1275
▁성경	-10.1277
▁부상	-10.1281
▁전략	-10.1281
▁자료	-10.1287
▁사용되고	-10.1289
▁맡아	-10.1291
田	-10.1293
▁창립	-10.1294
▁발표하였다	-10.1301
지에	-10.1302
▁소수	-10.1306
정책	-10.1316
▁방법을	-10.1322
하였지만	-10.1326
▁시작으로	-10.1327
▁명령	-10.1328
▁양자	-10.1329
▁개념	-10.1334
54	-10.1335
ie	-10.1339
58	-10.1339
na	-10.1342
▁이룬다	-10.1343
▁넘는	-10.1343
▁위원회	-10.1343
▁반영	-10.1347
▁벤	-10.1352
▁점을	-10.1352
67	-10.1354
힌	-10.1357
▁울산	-10.1361
▁기반	-10.1361
▁파견	-10.1365
▁탈출	-10.1368
)’	-10.1373
▁1958	-10.1375
▁부활	-10.1377
97	-10.1377
▁1956	-10.1384
94	-10.1384
▁시티	-10.1385
-3	-10.1386
▁유전자	-10.1387
▁뮤직	-10.139
갔다	-10.1391
▁45	-10.1398
66	-10.1401
▁반복	-10.1401
▁공공	-10.1406
주는	-10.1408
▁토지	-10.1412
▁시인	-10.1414
ut	-10.1415
▁라이	-10.1418
im	-10.1419
▁한다는	-10.1422
▁종류의	-10.1424
▁차이	-10.1428
▁1947	-10.1431
49	-10.1433
▁일대	-10.1433
▁로버트	-10.1438
▁강점기	-10.1446
▁청소년	-10.1449
▁맹	-10.1453
▁창조	-10.1459
▁말았다	-10.1461
・	-10.1461
기원전	-10.1464
▁가서	-10.1464
관계	-10.1465
▁벽	-10.1465
▁노동자	-10.1468
▁한반도	-10.1468
▁지금까지	-10.1474
자들이	-10.1475
87	-10.148
▁음식	-10.1481
트라	-10.1482
리가	-10.1483
▁후에는	-10.1485
▁규칙	-10.1492
물을	-10.1496
▁언	-10.1501
▁향상	-10.1502
▁아들로	-10.1502
▁없다고	-10.1502
▁철수	-10.1506
▁양성	-10.151
▁죽었다	-10.1513
é	-10.1514
▁작품을	-10.1516
▁동작	-10.1521
아이	-10.153
▁막부	-10.153
▁나타내는	-10.1533
핑	-10.1533
접	-10.1534
▁법칙	-10.1534
▁챔피언스리그	-10.1535
으	-10.1535
▁인도네시아	-10.1535
▁선조	-10.1535
新	-10.1541
ta	-10.1545
▁않았고	-10.1547
시키기	-10.1551
▁시간을	-10.1556
▁여기에	-10.1556
기업	-10.1557
ch	-10.156
▁먹	-10.1565
네스	-10.1567
▁자살	-10.1573
▁정상	-10.1576
▁건국	-10.1577
▁신학	-10.1578
▁선수가	-10.1578
▁마이클	-10.1578
▁사건을	-10.1579
▁박물관	-10.158
▁모아	-10.158
▁사건이	-10.1585
기간	-10.1585
▁달성	-10.1588
▁쓰는	-10.159
▁의식	-10.1595
▁메이	-10.1597
▁변환	-10.16
마리	-10.1601
▁방법으로	-10.1601
낸	-10.161
되면	-10.1611
▁성우	-10.1611
▁백제	-10.1613
▁달라	-10.1614
ra	-10.1621
▁의료	-10.1623
군과	-10.1623
▁국가의	-10.1624
▁수원	-10.1627
인지	-10.1628
▁것처럼	-10.1628
성의	-10.1631
59	-10.1633
▁수준	-10.1642
▁수상했다	-10.1644
▁출신으로	-10.1646
▁최초	-10.1647
▁괴	-10.1649
▁진입	-10.1649
神	-10.1651
▁상업	-10.1653
▁집안	-10.166
이치	-10.1664
▁신성	-10.1665
▁롯데	-10.167
▁기록한	-10.1671
▁소리	-10.1683
▁금융	-10.1685
▁1919	-10.1686
▁한번	-10.1687
▁라이브	-10.1687
▁전공	-10.1691
▁단지	-10.1692
▁전사	-10.1692
▁화면	-10.1692
▁스튜디오	-10.1694
▁이제	-10.1695
▁공을	-10.1699
▁SK	-10.17
▁강의	-10.1702
조직	-10.1705
▁논란이	-10.1708
.”	-10.1708
▁취급	-10.1712
▁발견된	-10.1713
음을	-10.1719
▁대략	-10.172
▁장소	-10.1721
관을	-10.1724
▁단일	-10.1725
96	-10.1728
▁대학교에서	-10.173
▁타이틀	-10.1731
▁상징	-10.1734
장의	-10.1738
기구	-10.1739
▁반드시	-10.1739
▁오스만	-10.1739
▁열렸다	-10.1741
▁수송	-10.176
▁몽	-10.1771
▁죄	-10.1773
▁역을	-10.1774
▁인기	-10.1775
▁1939	-10.1778
84	-10.1778
▁비교	-10.1787
▁사장	-10.1788
▁위기	-10.1791
<	-10.18
▁PC	-10.18
▁흥	-10.1803
▁만주	-10.1804
▁둘째	-10.1804
▁지상역이다	-10.1808
▁민간	-10.1809
76	-10.1815
▁조합	-10.1817
▁굴	-10.1818
▁불렀다	-10.182
kg	-10.1821
龍	-10.1822
▁신호	-10.1829
▁1954	-10.1833
78	-10.1835
부의	-10.1837
▁보안	-10.1838
겨	-10.1839
국의	-10.184
▁개최된	-10.1843
▁끝난	-10.1845
▁각각의	-10.185
▁근거	-10.1851
▁특별한	-10.1852
▁일본군	-10.1853
▁다음은	-10.1855
▁차트	-10.1855
뿐만	-10.1858
누스	-10.1863
중앙	-10.1863
하였던	-10.1864
였으나	-10.1879
▁사람들	-10.1884
폴	-10.1885
▁대개	-10.1888
▁상승	-10.1891
▁진압	-10.1896
▁나와	-10.1897
▁측면	-10.1898
all	-10.1899
▁존재하는	-10.1899
os	-10.1909
기와	-10.1909
득	-10.1912
▁재판	-10.1915
▁건너	-10.1915
▁숙	-10.1921
▁지급	-10.1925
▁불상	-10.1934
▁역이다	-10.1938
이었으나	-10.1939
▁겨울	-10.1943
▁가사	-10.1944
▁최다	-10.1945
▁뜻하는	-10.1947
▁내용	-10.1949
▁1952	-10.1955
▁이주	-10.1961
▁서버	-10.1962
제가	-10.1965
부인	-10.1965
세와	-10.1967
▁작품으로	-10.197
▁명이	-10.1974
▁수비	-10.1975
▁작곡가	-10.1975
▁1959	-10.1976
▁계기로	-10.1976
▁활	-10.1981
▁목표로	-10.1982
리오	-10.1983
▁분포	-10.1985
▁전파	-10.1985
부에	-10.1987
▁콘서트	-10.1989
53	-10.199
▁시리아	-10.1993
▁건조	-10.1994
▁형태를	-10.1996
곳	-10.1997
▁자동	-10.1997
▁군대를	-10.1999
原	-10.2003
솔	-10.2004
(17	-10.2008
▁무덤	-10.2012
▁갔다	-10.2017
仁	-10.2018
▁합류	-10.2024
▁오래	-10.2042
43	-10.2042
69	-10.2043
량이	-10.2043
▁밀도는	-10.2052
▁변경되었다	-10.2055
▁교사	-10.2059
특	-10.2069
▁구속	-10.2074
▁세르비아	-10.2074
렬	-10.2074
받은	-10.2075
▁깊은	-10.2081
▁이하	-10.2084
▁운동을	-10.2085
朴	-10.2088
원으로	-10.2088
世	-10.2089
▁헬	-10.2092
▁해산	-10.2094
▁화산	-10.2098
-19	-10.2099
▁어떠한	-10.2101
▁예측	-10.2102
▁낮	-10.2103
▁도달	-10.2103
▁투입	-10.2106
▁피해를	-10.2106
▁능력	-10.2109
▁이전의	-10.211
인들은	-10.2117
학자	-10.2118
縣	-10.2127
▁증거	-10.2128
▁발매된	-10.213
▁천체	-10.2132
원이	-10.2135
▁작품이다	-10.2145
▁항복	-10.2145
la	-10.215
▁국제공항	-10.215
▁것이며	-10.2153
▁창설	-10.2155
▁쓰이는	-10.2157
▁되자	-10.2158
ge	-10.2159
웅	-10.2161
▁알려졌다	-10.2162
맥	-10.2162
▁반발	-10.2163
▁방영된	-10.2163
▁앞두고	-10.2164
▁포함하고	-10.2166
▁논의	-10.2166
▁하나는	-10.2169
행위	-10.2169
74	-10.217
▁갖는	-10.2172
▁제대로	-10.2174
02	-10.2175
▁세계대전	-10.2177
▁노예	-10.2185
▁받았고	-10.2193
▁수집	-10.2193
▁마지막으로	-10.2193
▁외국인	-10.2195
▁명단	-10.2196
▁에어	-10.2201
▁좀	-10.2201
▁않으며	-10.2204
▁준다	-10.2205
예술	-10.2208
▁놓	-10.2209
분류	-10.2211
미터	-10.2213
▁속도	-10.2214
▁문장	-10.2215
▁갑	-10.2216
▁정확한	-10.2217
▁트랙	-10.2227
▁FA	-10.2229
▁청년	-10.2229
▁항구	-10.2231
▁아침	-10.2232
▁마침내	-10.2232
▁가졌다	-10.2232
▁33	-10.2235
▁세종	-10.2235
같은	-10.2235
79	-10.2237
▁붉은	-10.2237
▁선수단	-10.2238
co	-10.2242
럼	-10.2243
▁개조	-10.2244
▁보낸	-10.2247
▁온도	-10.225
▁1942	-10.225
▁했던	-10.2251
인들이	-10.2252
▁정비	-10.2257
전쟁	-10.2259
▁나왔다	-10.2259
▁신앙	-10.226
▁영역	-10.226
▁후기	-10.2264
▁군의	-10.2265
려고	-10.2268
▁들어서	-10.2272
▁개신교	-10.2274
호를	-10.2276
▁경기는	-10.2277
▁하였으나	-10.2278
▁개발한	-10.2278
▁교환	-10.2279
리를	-10.2279
분에	-10.2281
콜	-10.2293
▁장르	-10.2294
▁꼬리	-10.2295
▁기록이	-10.2298
어를	-10.2299
▁무리	-10.2303
빙	-10.2303
▁신화	-10.2304
▁모여	-10.2306
院	-10.2308
▁이들의	-10.2309
▁창단	-10.2313
▁다수의	-10.2315
▁예정이다	-10.232
▁이곳	-10.2328
51	-10.2331
▁지닌	-10.2334
ul	-10.2338
▁불법	-10.2341
▁시조	-10.2346
나는	-10.2347
▁활동했다	-10.235
▁1000	-10.2355
▁화물	-10.2358
▁범주	-10.2365
▁빠르게	-10.2368
디아	-10.2369
▁중심지	-10.237
▁포위	-10.237
▁바르	-10.2371
▁1955	-10.2371
▁포함한다	-10.2374
▁기술을	-10.2377
▁능력을	-10.2378
▁분할	-10.2381
▁가치	-10.2383
자인	-10.2385
里	-10.2387
▁연출	-10.2392
▁중부	-10.2395
▁조금	-10.2398
잡	-10.2399
▁있었기	-10.2399
▁최소	-10.2403
▁불과	-10.2404
▁지시	-10.2407
政	-10.2408
興	-10.2408
비를	-10.2409
▁임대	-10.241
릿	-10.2412
▁카르	-10.2413
▁지방의	-10.2416
ac	-10.2416
회를	-10.2425
▁글을	-10.2429
▁부근	-10.2429
▁카메라	-10.2431
▁위반	-10.2438
▁익	-10.2441
▁공부	-10.2443
▁모리	-10.2443
▁정지	-10.2444
▁1943	-10.2447
▁인권	-10.2448
▁요새	-10.2451
▁상하이	-10.2452
se	-10.2463
했다는	-10.2465
▁지어	-10.2466
(1	-10.2468
▁마치	-10.247
▁도서관	-10.2471
▁제주	-10.2474
▁전부	-10.2479
▁1953	-10.2485
《	-10.2485
▁고용	-10.2487
▁해에	-10.2489
▁to	-10.2491
▁나타난다	-10.2492
▁한국어	-10.2503
▁보조	-10.2511
프로	-10.2513
▁상황에서	-10.2515
▁나는	-10.2516
▁거래	-10.2523
▁남은	-10.2525
▁절대	-10.2528
▁38	-10.2529
▁보여	-10.2532
官	-10.2532
펠	-10.254
▁견	-10.2541
▁의장	-10.2542
經	-10.2542
62	-10.2545
▁안에서	-10.2549
꽃	-10.2549
▁선거에서	-10.2549
세이	-10.2553
졌고	-10.2554
▁해당한다	-10.2554
만큼	-10.2555
42	-10.2561
▁n	-10.2561
로도	-10.2565
▁되	-10.2566
▁모양의	-10.2567
41	-10.2568
本	-10.2568
베이	-10.257
▁추측	-10.2571
▁지금	-10.2576
힐	-10.2578
시대	-10.258
▁게이	-10.2582
63	-10.2582
첩	-10.2585
▁책임	-10.2587
92	-10.259
▁동의	-10.259
▁노르웨이	-10.2594
▁경우는	-10.2596
▁유형문화재	-10.2598
▁알아	-10.2598
▁찬	-10.2599
▁모드	-10.2602
▁주고	-10.2602
▁코미디	-10.2604
▁향해	-10.2606
케이	-10.2606
▁조작	-10.2609
▁말에	-10.2611
▁문제로	-10.2612
트로	-10.2612
▁베를린	-10.2616
▁크고	-10.2616
▁아버지는	-10.2618
몰	-10.2619
▁받을	-10.2625
洞	-10.2625
트는	-10.2631
_6	-10.2632
▁당시에는	-10.2635
▁마크	-10.2635
▁합성	-10.2636
日	-10.2643
▁점점	-10.2644
▁나이로	-10.2647
▁되며	-10.2647
▁벡터	-10.2651
▁예산	-10.2655
▁정책을	-10.2657
▁호수	-10.2658
투스	-10.266
▁머	-10.2663
▁대부분은	-10.2665
단의	-10.2667
▁의학	-10.2672
無	-10.2673
▁폭력	-10.2677
ma	-10.2677
林	-10.268
▁1957	-10.2684
▁평가를	-10.269
▁훗날	-10.2691
▁전화	-10.2691
▁부모	-10.2695
▁트리	-10.2697
▁36	-10.2701
지지	-10.2701
▁서비스를	-10.2703
넷	-10.2705
비트	-10.2706
~19	-10.2712
▁졸업하고	-10.2713
61	-10.2717
바라	-10.2717
▁채택	-10.2718
▁내용은	-10.2719
▁발음	-10.2722
▁의미를	-10.2724
▁유사한	-10.2724
生	-10.2724
린다	-10.2725
▁오페라	-10.2732
▁마이크로소프트	-10.2733
▁솔	-10.2739
▁순위	-10.2742
▁하나인	-10.2743
相	-10.2747
개를	-10.2747
객	-10.2752
▁아우	-10.2755
▁살해	-10.2757
▁번주	-10.276
▁KBO	-10.2765
▁오랫동안	-10.2766
▁작품은	-10.2769
본부	-10.2773
▁나누어	-10.2776
▁쓰고	-10.2777
▁출마	-10.2777
72	-10.2782
원의	-10.2782
▁반대로	-10.2783
▁전통적인	-10.2785
會	-10.2786
엄	-10.2789
▁주전	-10.2792
▁단백질	-10.2793
▁높다	-10.2796
忠	-10.2796
▁소재	-10.2798
▁가진다	-10.281
▁왕자	-10.2811
▁주기	-10.2814
▁부르는	-10.2815
혀	-10.2819
▁구현	-10.282
▁메모리	-10.2821
멸	-10.2822
▁기체	-10.2823
▁없으며	-10.2824
▁왕국의	-10.2827
요시	-10.2829
▁공업	-10.2837
개국	-10.284
▁고도	-10.2842
▁대통령이	-10.2845
▁필요하다	-10.2846
▁프로그램을	-10.2849
▁자원	-10.2855
우리	-10.2857
▁투어	-10.286
▁대한민국에서는	-10.2862
▁감독으로	-10.2864
▁측	-10.2865
사상	-10.2867
▁목사	-10.2868
om	-10.2868
되었을	-10.2871
조사	-10.2872
사단	-10.2872
▁인종	-10.2873
선은	-10.2879
▁제작한	-10.2882
서울	-10.2882
▁합격	-10.2883
▁등장한다	-10.2887
분의	-10.2894
▁생명	-10.2895
▁데이비드	-10.2898
부가	-10.2903
82	-10.2904
▁대표하는	-10.2911
▁활동하고	-10.2911
핀	-10.2912
스카	-10.2914
▁원소	-10.2919
카드	-10.2924
▁확정	-10.2929
구조	-10.2932
▁척	-10.2935
지구	-10.2937
▁자신들의	-10.2941
▁후보로	-10.2948
▁곤	-10.2954
병원	-10.2958
_3	-10.2958
▁위상	-10.296
▁니시	-10.2962
죽	-10.2966
▁법원	-10.2969
▁방송국	-10.297
▁로켓	-10.297
형을	-10.2978
▁선정되었다	-10.2981
▁받는다	-10.2982
∼	-10.2982
▁존재하지	-10.2984
▁어린이	-10.2985
▁논문	-10.2987
▁시내	-10.2988
▁기지	-10.2989
▁장수	-10.299
▁한자	-10.2996
▁공유	-10.3004
▁붙	-10.3005
호는	-10.3008
▁명칭은	-10.301
▁편입	-10.3011
▁앞에서	-10.3012
공화국	-10.3015
▁경기장	-10.3015
都	-10.3016
▁중이다	-10.3021
〉,	-10.3024
▁크다	-10.3026
▁선고	-10.3026
▁주장하였다	-10.3031
납	-10.3031
▁퇴	-10.3034
▁탄생	-10.3035
▁Me	-10.3038
op	-10.3039
마르	-10.304
▁린	-10.3043
▁의무	-10.3045
▁직원	-10.3054
100	-10.3054
81	-10.3059
▁무게	-10.306
▁관계가	-10.3061
주에	-10.3062
▁건립	-10.3062
▁이승만	-10.3073
93	-10.3077
▁상품	-10.3078
▁아마	-10.3079
▁보컬	-10.308
▁센	-10.3081
왕후	-10.3082
▁유사	-10.3085
ant	-10.3087
사이	-10.3087
▁학위를	-10.3088
▁아시안	-10.309
▁특징	-10.3092
▁시즌에	-10.3092
▁연구를	-10.3092
▁감정	-10.3094
▁사립	-10.3095
▁역사적	-10.3095
스테	-10.3096
▁신체	-10.3096
▁결	-10.3097
▁150	-10.31
ang	-10.3102
▁열대	-10.3105
값	-10.3108
▁성당	-10.3112
▁실현	-10.3113
▁스토리	-10.3113
위원	-10.3116
▁1936	-10.3116
▁학습	-10.3116
71	-10.3119
▁하늘	-10.3123
법에	-10.3124
▁트	-10.3128
▁In	-10.3137
▁공장	-10.3138
君	-10.3144
▁연료	-10.3144
▁시작한다	-10.3151
▁나들목	-10.3153
▁이루어졌다	-10.3156
▁그들이	-10.3157
▁개시	-10.316
▁찰스	-10.3165
▁블루	-10.3171
▁재배	-10.3172
▁제공한다	-10.3173
▁분야에서	-10.3175
聖	-10.3176
▁늘	-10.3178
son	-10.3179
번의	-10.318
▁진주	-10.3182
연구소	-10.3184
▁데뷔하였다	-10.3185
▁d	-10.3187
냈다	-10.319
▁하였으며	-10.3191
메이	-10.3192
▁일원	-10.3195
▁의심	-10.3196
▁서양	-10.3201
▁글자	-10.3201
▁감독이	-10.3203
白	-10.3205
니스	-10.3205
단계	-10.3207
▁신분	-10.3208
차전	-10.3211
▁분열	-10.3216
오카	-10.3216
▁팝	-10.322
바르	-10.3224
▁보관	-10.3226
五	-10.3228
▁챔피언	-10.3229
논	-10.3232
▁놓고	-10.3235
부는	-10.3239
▁가지는	-10.3242
▁가로	-10.3244
▁캘리포니아	-10.3248
▁입자	-10.3249
▁만족	-10.325
▁경우에	-10.3251
▁것이라는	-10.3251
▁주어	-10.3254
▁기둥	-10.3255
▁순간	-10.3256
점이	-10.3257
▁워	-10.3257
▁만들어졌다	-10.3259
▁원형	-10.3262
漢	-10.3262
카이	-10.3263
▁포함하여	-10.3265
▁시작된	-10.3268
500	-10.3272
▁연구소	-10.3272
▁나오	-10.3275
▁이루고	-10.3279
▁임진왜란	-10.328
▁민법	-10.3283
▁신인	-10.3284
대사	-10.3285
▁설치된	-10.3285
▁기도	-10.3287
번째로	-10.3287
▁서구	-10.3293
▁착	-10.3299
▁완전	-10.3299
어는	-10.33
▁1910	-10.3302
▁병원	-10.3302
▁침략	-10.3303
▁관료	-10.3306
▁역으로	-10.3306
▁1938	-10.3309
▁되기	-10.3311
▁많아	-10.3312
제로	-10.3314
문제	-10.3316
▁이후로	-10.332
ard	-10.3322
▁관광	-10.3326
▁바뀌었다	-10.3329
▁구원	-10.3331
▁주민	-10.3333
▁도전	-10.3335
▁지은	-10.3338
▁나폴레옹	-10.3342
면에	-10.3344
▁도시이다	-10.3344
활동	-10.3346
생활	-10.3346
ri	-10.3347
▁정원	-10.3347
門	-10.3347
▁나뉜다	-10.3352
▁문신	-10.3354
▁모양	-10.3358
▁발견되었다	-10.3358
▁연합군	-10.3359
▁검은	-10.3361
▁원년	-10.3365
구역	-10.3367
▁연결하는	-10.3369
▁질병	-10.337
▁올렸다	-10.3372
▁박정희	-10.3373
▁살아	-10.3374
▁잘못	-10.3376
욕	-10.3381
▁장착	-10.3385
▁활약을	-10.3386
뿐	-10.3396
티스	-10.3398
▁터미널	-10.3399
▁유일하게	-10.3399
▁고리	-10.34
▁감독을	-10.3403
시오	-10.3407
,000	-10.3408
▁혼란	-10.3409
게임	-10.3412
▁원작	-10.3416
▁쓸	-10.3417
▁있음을	-10.342
▁털	-10.3423
원은	-10.3424
▁올림픽에서	-10.3426
▁아카데미	-10.3427
으면서	-10.3428
(2	-10.3431
▁침입	-10.3432
스러운	-10.3434
▁복무	-10.3435
▁플레이오프	-10.3442
▁후원	-10.3442
▁일어났다	-10.3445
▁정치인이다	-10.3448
▁셀	-10.345
▁조건	-10.3451
신문	-10.3456
▁내의	-10.3458
▁내용이	-10.3461
▁골을	-10.3463
제는	-10.3463
▁포기	-10.3463
▁속한	-10.347
▁그렇게	-10.3474
永	-10.3476
받아	-10.3479
▁오토	-10.348
스티	-10.348
de	-10.3481
▁명칭	-10.3485
▁값	-10.3487
▁고문	-10.3487
▁넓이는	-10.3489
▁작업을	-10.349
▁출시되었다	-10.3491
▁태국	-10.3493
트리	-10.3494
▁소녀	-10.3496
使	-10.3499
었지만	-10.3502
▁공무원	-10.3503
롤	-10.3507
상태	-10.3507
▁곳으로	-10.351
太	-10.3512
▁영업	-10.3513
▁뮤지컬	-10.3513
소를	-10.3513
▁사례	-10.3517
큐	-10.3517
▁진보	-10.3518
▁질량	-10.3521
▁듣고	-10.3524
▁자리에	-10.3526
▁극장	-10.353
철도	-10.3531
▁브라	-10.3533
▁전선	-10.3534
▁입력	-10.3534
▁중화	-10.3534
▁모형	-10.3535
서는	-10.3542
▁나타나	-10.3542
▁자치	-10.3543
▁유적	-10.3544
시스	-10.3546
▁가치가	-10.3548
▁확립	-10.3548
행정	-10.3553
▁통산	-10.3555
▁어려운	-10.3556
鄭	-10.3556
▁34	-10.3567
렉	-10.3571
▁독특한	-10.3571
▁명나라	-10.3574
▁얻은	-10.3576
▁사마	-10.3577
▁않게	-10.3579
▁홋카이도	-10.358
▁실수	-10.358
83	-10.3585
▁내전	-10.3586
▁주연으로	-10.3587
항공	-10.3588
계획	-10.3589
▁교육을	-10.3591
바이	-10.3591
▁순서	-10.3592
▁다르게	-10.3592
▁내렸다	-10.3593
▁조절	-10.3594
▁보물	-10.3595
▁거두었다	-10.3595
▁배출	-10.3597
▁소스	-10.3599
▁어깨	-10.3602
▁그와	-10.3605
▁상태에서	-10.3607
▁서명	-10.3612
▁목록이다	-10.3613
▁집권	-10.3614
張	-10.3615
no	-10.3616
▁일본인	-10.3618
▁사실이	-10.3624
▁종이	-10.3626
▁1937	-10.3627
▁기여	-10.3628
▁챔피언십	-10.3629
▁사단	-10.3629
▁얼굴	-10.3629
▁이름의	-10.3632
▁축제	-10.3632
▁당선	-10.3637
▁귀국	-10.3639
▁주관	-10.3641
▁층	-10.3645
대표	-10.3647
▁복원	-10.365
녕	-10.365
▁사용된	-10.3652
▁후손	-10.3655
▁못하였다	-10.3655
▁가격	-10.3655
교통	-10.3655
이드	-10.366
▁코치	-10.3663
▁1914	-10.3664
▁당나라	-10.3666
학적	-10.3667
▁하위	-10.3668
▁대부분이	-10.367
핵	-10.3674
▁처벌	-10.3677
▁상태로	-10.368
컬	-10.3684
▁곽	-10.3688
73	-10.3689
▁태조	-10.369
▁위원장	-10.3691
량을	-10.3692
▁없다는	-10.3694
▁임금	-10.3694
퇴	-10.3695
▁메인	-10.3701
▁빠져	-10.3702
으로서의	-10.3704
▁마이	-10.3705
52	-10.3708
▁부상을	-10.3714
▁공동체	-10.3716
모리	-10.3717
▁유대인	-10.3718
-4	-10.3718
비치	-10.3722
▁상당한	-10.3724
라면	-10.3724
▁전까지	-10.3725
▁for	-10.3726
▁새롭게	-10.3726
▁뉴질랜드	-10.3731
▁화가	-10.3731
억원	-10.3734
▁교류	-10.3734
府	-10.3736
▁징역	-10.3736
▁소비	-10.3743
▁방해	-10.3746
▁다소	-10.3746
▁중요	-10.3748
▁혐의로	-10.3748
하므로	-10.3751
▁논리	-10.3751
▁개봉	-10.3753
천군	-10.3755
▁힐	-10.3755
▁이라크	-10.3759
▁홍보	-10.3761
▁마무리	-10.3763
ill	-10.3764
텔	-10.3765
▁루이스	-10.3768
▁사람들의	-10.3771
쌍	-10.3772
▁1935	-10.3778
▁부분을	-10.378
▁대비	-10.3785
▁바이에른	-10.3788
▁숨	-10.379
▁편이다	-10.3792
▁해양	-10.3794
▁일어나	-10.3794
라며	-10.3796
ist	-10.3798
▁농구	-10.38
▁참조	-10.3802
▁개입	-10.3807
mo	-10.3813
▁지역으로	-10.3815
룬	-10.3822
200	-10.3823
▁입장을	-10.3824
▁당초	-10.3835
▁변형	-10.3837
▁한글	-10.3837
▁병합	-10.3839
▁규모의	-10.3839
▁나타나는	-10.384
▁유행	-10.3843
▁로스앤젤레스	-10.3844
▁맡은	-10.3846
▁전직	-10.3849
▁제출	-10.3849
▁중의	-10.3857
ce	-10.3869
▁금메달을	-10.3869
▁통상	-10.387
이닝	-10.3872
▁미국과	-10.3874
조는	-10.3876
▁특정한	-10.3876
▁만들고	-10.3879
학회	-10.3881
▁성적을	-10.3884
▁길을	-10.3887
▁함락	-10.3887
▁다다	-10.3888
▁빛	-10.3892
왕의	-10.3892
▁1918	-10.3894
▁들고	-10.3897
▁참석	-10.3898
▁현지	-10.3899
옹	-10.3899
▁일본어	-10.3906
▁설립되었다	-10.3908
▁서울대학교	-10.391
▁1951	-10.3915
▁e	-10.3919
▁기회를	-10.3919
▁십	-10.3919
짐	-10.3919
느	-10.3921
▁일부는	-10.3922
▁음악을	-10.3925
▁작사	-10.3926
▁제공하는	-10.3931
대신	-10.3934
석을	-10.3937
▁연안	-10.3938
▁경제적	-10.394
▁이른다	-10.394
▁아카	-10.3942
▁시카고	-10.3942
타운	-10.3944
▁만든다	-10.3948
당시	-10.3952
치를	-10.3953
▁올려	-10.3955
▁히로	-10.3956
所	-10.3958
베리	-10.3962
시의	-10.3962
▁중에는	-10.3962
지대	-10.3966
▁출	-10.3968
▁영화는	-10.3969
▁여왕	-10.397
▁제일	-10.397
▁맞아	-10.3973
제의	-10.3978
률	-10.3978
▁주력	-10.3982
▁광장	-10.3985
▁덴	-10.3986
▁크로아티아	-10.3986
▁효과	-10.3988
▁따로	-10.3989
one	-10.3991
수로	-10.3995
▁황금	-10.3996
▁무대	-10.3998
記	-10.4
▁소속으로	-10.4004
▁받았으며	-10.4006
▁인상	-10.401
데스	-10.4011
▁변화를	-10.4013
▁참여했다	-10.4017
昌	-10.4017
▁흑인	-10.402
▁프로듀서	-10.4021
▁스페인의	-10.4023
▁나온다	-10.4026
▁인쇄	-10.403
和	-10.4037
▁1932	-10.4038
ass	-10.4039
ian	-10.4039
▁사령관	-10.4042
▁나타낸다	-10.4043
ci	-10.4047
종의	-10.4049
▁경성	-10.405
▁지위를	-10.4052
島	-10.4053
밖에	-10.4055
▁이름이다	-10.4057
▁재산	-10.406
▁위로	-10.4066
▁참전	-10.4067
▁De	-10.4068
스턴	-10.4069
▁가까이	-10.407
▁차별	-10.4071
▁넣어	-10.4072
▁번의	-10.4076
▁연간	-10.4079
▁접한다	-10.4083
▁쪽	-10.4084
▁37	-10.4091
낭	-10.4091
활	-10.4095
▁협상	-10.4098
ex	-10.4099
▁혜	-10.41
▁수도원	-10.4103
▁세력을	-10.4104
▁답	-10.4106
▁절반	-10.4111
▁천주교	-10.4113
되	-10.4114
▁본부	-10.4119
▁아이돌	-10.4119
and	-10.4121
▁탈퇴	-10.4124
사랑	-10.4126
▁유학	-10.4133
권의	-10.4135
▁이혼	-10.4138
▁레드	-10.4139
▁말레이시아	-10.4141
▁세이	-10.4142
▁번호는	-10.4144
고속도로	-10.4146
민족	-10.4153
性	-10.416
렛	-10.416
▁상대적으로	-10.4161
별로	-10.4161
▁혼인	-10.4163
▁테러	-10.4163
▁들어갔다	-10.4169
▁공산주의	-10.4171
조의	-10.4171
▁일부를	-10.4175
江	-10.4177
▁이르렀다	-10.4186
▁정수	-10.4187
▁대회에	-10.4193
▁자극	-10.4198
ell	-10.4204
▁행렬	-10.4205
대상	-10.4207
혁명	-10.4208
▁여러가지	-10.4214
▁판결	-10.4215
학생	-10.4219
▁에드워드	-10.422
▁왕이	-10.4223
▁일어나는	-10.4225
▁지금은	-10.4228
사키	-10.4231
▁쉬	-10.4235
▁저녁	-10.4235
▁제외	-10.4235
▁자본	-10.4236
▁유한	-10.4237
▁날개	-10.4238
▁신설	-10.4239
▁가문의	-10.4241
▁사전	-10.4247
▁도구	-10.4247
▁명예	-10.425
▁강조	-10.4253
▁곡을	-10.4254
▁장악	-10.4255
Q	-10.4258
_7	-10.426
▁근처에	-10.426
▁사용했다	-10.4261
▁DNA	-10.4262
▁병사	-10.4262
▁완공	-10.4271
▁공연을	-10.4274
▁갖추고	-10.4275
다른	-10.4277
▁조선총독부	-10.4283
▁항의	-10.4283
▁불렸다	-10.4286
▁운영하고	-10.4287
▁비롯하여	-10.4288
켈	-10.4289
▁갈색	-10.429
▁인구가	-10.4292
der	-10.4294
▁보았다	-10.4295
▁의도	-10.4295
▁가게	-10.4298
▁로드	-10.43
▁루마니아	-10.4301
▁1933	-10.4301
오는	-10.4303
▁장교	-10.4305
▁임의의	-10.4305
에선	-10.4307
군으로	-10.4307
▁김일성	-10.4314
▁않기	-10.4315
▁전설	-10.4319
▁이로써	-10.432
▁수소	-10.432
▁핀	-10.4323
ig	-10.4325
ent	-10.4328
▁필요가	-10.4329
라도	-10.4331
▁스타일	-10.4338
▁대화	-10.4341
▁공중	-10.4341
최	-10.4343
▁곡은	-10.4344
▁대체로	-10.4349
▁벌어진	-10.4351
▁보유하고	-10.4351
▁엄청난	-10.4352
까지의	-10.4354
▁아랍	-10.4356
▁컵	-10.4358
▁나아가	-10.436
▁파크	-10.4361
젤	-10.4361
91	-10.4363
▁불만	-10.4365
▁동일	-10.4366
▁일정한	-10.4367
▁조선시대	-10.4367
▁남겼다	-10.4371
▁1924	-10.4372
였지만	-10.4374
▁대한민국에서	-10.4378
▁부분이	-10.4379
▁헤이	-10.4379
▁베이	-10.4381
토스	-10.4381
▁도모	-10.4381
▁감염	-10.4383
째	-10.4383
▁않지만	-10.4384
▁장애	-10.4385
했	-10.4387
하이	-10.4387
▁먼	-10.4388
역으로	-10.4393
▁수여	-10.4395
▁부담	-10.4398
▁나카	-10.4402
ay	-10.4405
尹	-10.4407
▁케이	-10.4408
해진	-10.4409
▁떠났다	-10.4409
▁사용하였다	-10.441
▁중력	-10.4413
▁목표	-10.4413
톨	-10.4414
▁영웅	-10.4416
동맹	-10.4418
▁침	-10.4418
▁생긴	-10.4418
등의	-10.4419
▁서식지	-10.442
▁WWE	-10.4422
▁남쪽으로	-10.4422
▁가설	-10.4423
머리	-10.4424
▁점이	-10.4425
▁기호	-10.4426
▁못하는	-10.4428
▁깨	-10.443
캐	-10.4433
▁화성	-10.4433
▁이로	-10.4441
▁세계적으로	-10.4442
▁방면	-10.4443
▁선전	-10.4443
하다고	-10.4445
善	-10.4445
li	-10.4445
▁떠	-10.4448
▁전면	-10.4449
▁1934	-10.4449
▁멀리	-10.445
敎	-10.4451
▁대장	-10.4452
▁프리드리히	-10.4454
▁성능	-10.4454
▁뿌리	-10.4456
▁불가리아	-10.4457
▁페르시아	-10.4461
▁맞서	-10.4461
▁인천광역시	-10.4463
▁출범	-10.4466
▁명을	-10.4467
▁수영	-10.447
▁사태	-10.4472
▁조선의	-10.4476
▁왕비	-10.4477
▁만다	-10.4477
▁놀	-10.4478
▁작동	-10.4479
장군	-10.4479
▁참가했다	-10.4481
켄	-10.4486
io	-10.4486
▁1900	-10.4488
▁세인트	-10.4492
▁고향	-10.4493
▁중학교이다	-10.4499
▁이들을	-10.4499
▁소련의	-10.4499
▁성분	-10.4503
▁모임	-10.4505
스코	-10.4507
▁1928	-10.4509
시티	-10.4509
▁알리	-10.4509
▁임기	-10.4511
▁진행되었다	-10.4511
소리	-10.4513
▁훈	-10.4513
▁되는데	-10.4513
▁사업을	-10.4515
▁저술	-10.4519
▁성을	-10.4524
▁킹	-10.4524
▁전쟁에서	-10.4525
▁잡아	-10.4525
▁사람들을	-10.453
▁얻을	-10.4531
▁콩	-10.4532
멜	-10.4532
▁노벨	-10.4533
有	-10.4533
▁동양	-10.4534
▁이르러	-10.4538
▁상주	-10.4547
▁일본에	-10.4551
호가	-10.4551
▁업	-10.4556
▁앞으로	-10.4557
코프	-10.456
▁곳이다	-10.4563
셰	-10.4564
▁흘러	-10.4565
▁심각한	-10.4566
▁넘	-10.4566
趙	-10.4568
▁거듭	-10.4571
▁간행	-10.4573
▁주식회사	-10.4575
▁들면	-10.4578
▁올림픽에	-10.4578
계를	-10.4579
com	-10.4579
▁포트	-10.458
▁감시	-10.4582
▁출력	-10.4592
▁위험	-10.4595
▁재건	-10.4597
▁말하는	-10.4599
▁여겨진다	-10.4601
▁기록은	-10.4605
▁결승전	-10.4606
▁해도	-10.4606
▁AFC	-10.4609
(14	-10.4609
ver	-10.461
▁지형	-10.4615
▁차지	-10.4617
▁발굴	-10.4618
▁상위	-10.4618
▁초에	-10.4619
▁것이라	-10.4619
드라마	-10.462
공업	-10.4623
▁개성	-10.4625
▁매장	-10.4628
당했다	-10.4629
▁접촉	-10.463
또는	-10.4635
▁아래에	-10.4635
▁중인	-10.4637
▁생존	-10.4637
스토	-10.4641
지면서	-10.4643
▁이전에는	-10.4643
▁초기의	-10.4644
에만	-10.4645
▁방식	-10.4645
통신	-10.4645
▁구입	-10.4646
▁눈에	-10.4649
▁오직	-10.4653
▁메이지	-10.4657
▁좌우	-10.4657
▁지니고	-10.4658
|	-10.4658
성에	-10.4661
ry	-10.4662
▁돈을	-10.4664
▁리더	-10.4665
▁홈런	-10.4667
▁여섯	-10.4669
▁동원	-10.467
▁장면	-10.4673
▁모습	-10.4676
▁석유	-10.468
j	-10.4683
面	-10.4684
▁원인이	-10.4686
론을	-10.4686
둔	-10.4686
▁빅	-10.4688
▁재학	-10.4689
ast	-10.4689
▁수상하였다	-10.4694
▁위원	-10.4695
▁완료	-10.4696
▁인공	-10.4697
▁역은	-10.4699
브라	-10.47
堂	-10.4702
▁설치류	-10.4705
연맹	-10.4705
▁효과를	-10.4706
ha	-10.4707
▁환자	-10.4709
▁원리	-10.4715
▁학살	-10.4715
▁동안에	-10.4721
▁기본적으로	-10.4722
▁초등학교	-10.4723
▁꿈	-10.4724
▁제작에	-10.4725
▁노래를	-10.4728
▁그리하여	-10.473
▁추천	-10.4733
▁아파트	-10.4735
▁비용	-10.4735
▁학자	-10.4739
▁행동을	-10.4746
▁세상을	-10.4747
▁세대	-10.4748
▁재개	-10.4748
▁발생하는	-10.4749
▁펜	-10.475
▁절차	-10.4756
부사	-10.4757
▁기회	-10.4766
▁추기경	-10.4768
之	-10.4773
▁웨스트	-10.4775
▁파이	-10.4776
小	-10.478
▁지점	-10.4782
세로	-10.4782
▁시위	-10.4784
▁샤를	-10.4785
▁변수	-10.4785
▁아키	-10.479
▁리처드	-10.4792
▁전철	-10.4797
per	-10.48
の	-10.4801
▁주둔	-10.4805
시로	-10.4812
사령부	-10.4816
▁대공	-10.4817
▁올라가	-10.4817
▁상대식	-10.4828
▁책임을	-10.4829
▁특징이다	-10.4829
our	-10.4831
▁약속	-10.4832
▁취소	-10.4833
▁한국인	-10.4833
ment	-10.4834
▁폴리	-10.4836
됨	-10.4836
단을	-10.484
▁보여준다	-10.4843
넬	-10.4854
▁앙	-10.4857
▁아들인	-10.4858
▁손자	-10.4859
司	-10.4864
崔	-10.4865
털	-10.4873
법은	-10.4876
▁분해	-10.4877
▁살인	-10.4878
휘	-10.4878
▁완전한	-10.488
▁청구	-10.4882
관으로	-10.4884
’(	-10.4886
▁양쪽	-10.4886
▁손상	-10.4887
▁아름다운	-10.4889
▁비트	-10.4893
▁있었다고	-10.4901
ton	-10.4901
박쥐	-10.4902
▁선박	-10.4904
▁액션	-10.4905
▁전송	-10.491
▁유럽의	-10.4911
▁가수이다	-10.4912
족의	-10.4915
▁이루는	-10.4916
▁오른	-10.492
이었지만	-10.4923
▁사망한	-10.4927
뢰	-10.4928
장치	-10.493
▁연구에	-10.4933
권이	-10.4933
▁타율	-10.4935
▁사운드	-10.4943
▁미니	-10.4945
▁상속	-10.4945
▁동기	-10.4945
▁공정	-10.4948
▁전역	-10.4952
▁시스템을	-10.4964
▁역사를	-10.4964
▁진격	-10.4964
국제	-10.4966
▁비상	-10.4967
▁받아들여	-10.4967
▁이후에도	-10.4968
▁라이트	-10.497
▁카이	-10.4974
▁창당	-10.4975
▁깊이	-10.4975
▁크로	-10.4975
환경	-10.4979
국민	-10.4994
▁세부	-10.4997
되거나	-10.4999
▁현역	-10.5
▁고속	-10.5002
▁주장한다	-10.5004
▁노부	-10.5009
▁관여	-10.5015
▁프로이센	-10.5015
不	-10.5017
▁맞이	-10.5018
▁밀려	-10.502
▁탄소	-10.5021
▁서술	-10.5023
맹	-10.503
▁지지를	-10.5033
저우	-10.5034
▁갑자기	-10.5037
▁선출되었다	-10.5037
장에	-10.5044
▁아동	-10.5044
▁고속도로	-10.5053
트를	-10.5054
편성	-10.5054
극장	-10.5055
ho	-10.5057
▁역에서	-10.5057
▁말로	-10.506
▁옷	-10.5062
▁편찬	-10.5063
에서부터	-10.5063
定	-10.5064
촉	-10.5066
▁검찰	-10.507
▁베네치아	-10.5071
수의	-10.5071
▁이른바	-10.5072
▁없을	-10.5073
▁그곳에서	-10.5074
▁주택	-10.5074
▁위치를	-10.5074
▁역임하였다	-10.5075
▁저지	-10.5077
▁애플	-10.5077
랭	-10.5078
럴	-10.5078
▁호주	-10.5084
▁델	-10.5086
▁데에	-10.5088
▁임무	-10.5089
▁인용	-10.5097
▁발언	-10.5098
▁복합	-10.5099
▁부친	-10.5101
▁섬의	-10.5101
▁보고서	-10.5106
만원	-10.5117
▁즉시	-10.512
▁벗어나	-10.5125
▁의존	-10.5125
▁단편	-10.5126
▁피아노	-10.5126
▁않으면	-10.513
▁본다	-10.5131
▁대상이	-10.5132
▁성공을	-10.5132
지마	-10.5136
▁군단	-10.5136
▁부하	-10.5138
理	-10.5139
▁1931	-10.514
▁아래와	-10.5144
▁압	-10.5145
▁구별	-10.5146
▁우려	-10.5146
▁신청	-10.5147
휴	-10.5148
心	-10.5148
되게	-10.515
河	-10.5158
함과	-10.516
▁DVD	-10.5163
▁차지하고	-10.5165
▁감사	-10.5168
렐	-10.5171
역을	-10.5172
승을	-10.5174
▁잭슨	-10.5175
탐	-10.5176
▁문명	-10.518
▁그에	-10.5185
▁달려	-10.5189
▁겐	-10.519
▁미국인	-10.519
▁피부	-10.5194
▁흰	-10.5195
ers	-10.5198
▁궁전	-10.5198
▁로봇	-10.52
▁녹색	-10.5203
▁승려	-10.5204
▁+	-10.5206
▁청주	-10.5206
으로도	-10.5206
▁구성원	-10.5208
▁게다가	-10.5208
활동을	-10.5211
버그	-10.5211
▁파악	-10.5213
▁진학	-10.5216
▁플레이어	-10.5219
▁영주	-10.522
소설	-10.5221
▁열차가	-10.5225
▁패션	-10.5226
▁갖는다	-10.5227
▁Q	-10.5228
하여야	-10.5229
▁플라	-10.523
▁일으켰다	-10.5232
드라	-10.5232
대장	-10.5234
▁그래픽	-10.5235
▁명령을	-10.5236
▁뛰고	-10.5239
▁보기	-10.5239
▁나뉘어	-10.5241
▁쿠데타	-10.5243
▁포인트	-10.5243
마루	-10.5248
▁42	-10.5253
▁음성	-10.5253
ub	-10.5256
▁전쟁에	-10.5257
▁사형	-10.5259
▁창작	-10.5261
오리	-10.5263
▁사제	-10.5263
도서관	-10.5264
▁주간	-10.5264
▁정치가	-10.5266
▁서쪽으로	-10.5266
▁빌보드	-10.5268
▁따서	-10.5269
od	-10.5273
▁칠레	-10.5273
대에	-10.5274
삭	-10.5275
▁공화국의	-10.5275
▁뮌헨	-10.5281
MA	-10.5285
▁영향	-10.5289
▁기록되어	-10.5289
윈	-10.5289
▁발간	-10.529
宮	-10.5296
▁부분은	-10.5298
▁높	-10.5302
▁베스트	-10.5306
▁말이	-10.5308
▁희망	-10.531
▁지구의	-10.5311
▁나타났다	-10.5314
간다	-10.5315
▁설득	-10.5317
▁발명	-10.5318
▁대표로	-10.5319
잠	-10.5319
est	-10.532
▁때의	-10.5329
금을	-10.533
▁허락	-10.5334
▁가슴	-10.5338
필드	-10.5338
▁사냥	-10.534
▁자라	-10.5342
▁아라	-10.5344
우드	-10.5344
▁영국군	-10.5346
▁사라	-10.5348
략	-10.5349
▁1929	-10.535
등을	-10.5357
▁바이러스	-10.5357
등이	-10.5357
▁혼합	-10.5358
데이	-10.5358
▁이끌었다	-10.5358
▁악기	-10.5359
▁전동차	-10.536
▁조선시대의	-10.5361
▁이상이	-10.5361
▁상실	-10.5367
낼	-10.5371
▁하여금	-10.5373
▁1925	-10.5374
▁신부	-10.5374
▁참가한	-10.5374
▁1923	-10.5378
▁일으켜	-10.5379
▁비행기	-10.5379
체를	-10.5381
馬	-10.5382
지방법원	-10.5386
괴	-10.5386
▁카라	-10.5387
▁하에	-10.5387
해졌다	-10.5388
▁좋지	-10.5388
▁아테네	-10.5389
닉	-10.539
▁확산	-10.539
파의	-10.539
▁1921	-10.5392
▁운영하는	-10.5392
▁종류	-10.5394
▁역할	-10.5398
▁주장을	-10.5401
▁의미하는	-10.5402
▁싱가포르	-10.5405
인조	-10.5407
푼	-10.5408
▁벼슬	-10.5408
백만	-10.5413
▁터널	-10.5413
▁촉	-10.5416
▁문헌	-10.5417
▁집행	-10.5419
▁관련이	-10.5422
▁없게	-10.5422
▁그것이	-10.5423
韓	-10.5423
▁입고	-10.5423
▁세상	-10.5426
중에	-10.5428
▁39	-10.5429
▁그리스도	-10.543
▁재임	-10.543
발전	-10.543
잉	-10.5432
전자	-10.5433
▁판사	-10.5434
하에	-10.5442
▁문제에	-10.5442
▁동쪽으로	-10.5443
사에서	-10.5445
▁품	-10.5446
▁조치	-10.5453
▁사건으로	-10.5458
개가	-10.5459
▁동방	-10.5461
▁사양	-10.5462
▁개설	-10.5464
주를	-10.5467
▁1922	-10.5468
▁융	-10.5472
선수	-10.5473
어서	-10.5478
장에서	-10.5479
▁디스크	-10.5479
▁형식으로	-10.548
▁복잡한	-10.549
▁매일	-10.5496
▁민주주의	-10.5499
▁유통	-10.5499
▁소식을	-10.5501
▁w	-10.5502
▁보병	-10.5508
▁중학교	-10.5508
했었다	-10.5509
▁일부가	-10.5512
▁단순한	-10.5517
▁55	-10.5517
ome	-10.5519
▁폭탄	-10.5519
되었기	-10.5522
▁조지아	-10.5523
없는	-10.5523
리우스	-10.5527
구를	-10.5527
▁g	-10.553
룸	-10.5531
▁타격	-10.5533
▁낭	-10.5534
▁개방	-10.5535
▁권력을	-10.554
▁적도	-10.5543
BS	-10.5545
▁초기에	-10.5549
▁바위	-10.5551
▁도쿄도	-10.5551
▁연결되어	-10.5551
▁죽음	-10.5557
▁르	-10.5559
▁선포	-10.556
▁입단하였다	-10.5562
라인	-10.5569
▁상황을	-10.5582
▁상당	-10.5585
▁처형	-10.5585
▁속의	-10.5591
▁걸친	-10.5592
▁대통령은	-10.5597
함수	-10.5597
▁책을	-10.5598
▁만한	-10.56
▁의지	-10.5601
제국	-10.5601
▁파워	-10.5602
史	-10.5612
四	-10.5612
인들의	-10.5613
우는	-10.5613
▁습격	-10.5616
▁전신	-10.5618
古	-10.5619
열차	-10.5621
▁언덕	-10.5621
▁그려	-10.5622
▁총선	-10.5625
지며	-10.5626
시는	-10.5628
▁우수	-10.5629
법이	-10.563
▁확률	-10.5632
▁브라운	-10.5632
▁부르	-10.5636
師	-10.5636
전선	-10.5637
▁조건을	-10.564
▁테스트	-10.5643
둥	-10.5644
ab	-10.5648
▁미래	-10.5652
▁미리	-10.5653
▁방식을	-10.566
▁밝혀졌다	-10.5663
▁지위	-10.5667
▁묵	-10.567
공학	-10.5672
▁탄핵	-10.5672
▁위에서	-10.5675
▁너	-10.5675
정도	-10.5676
▁프랑스어	-10.5677
▁이적하였다	-10.5678
▁체코	-10.5684
▁계통	-10.5685
▁태종	-10.5687
▁탈락	-10.5693
▁구매	-10.5696
▁승객	-10.5698
▁등급	-10.5701
▁있으므로	-10.5701
▁사원	-10.5703
▁유물	-10.5705
았고	-10.5705
▁전반	-10.5707
▁뒷	-10.5707
관이	-10.5708
▁인물로	-10.571
▁이민	-10.5713
▁대선	-10.5716
▁업체	-10.572
▁가상	-10.5721
▁숫자	-10.5722
식이	-10.5725
▁전투기	-10.5729
▁와서	-10.5732
조에	-10.5735
상과	-10.5735
▁부부	-10.5738
시험	-10.5741
▁기록하며	-10.5744
▁일단	-10.5744
▁유형	-10.5745
롬	-10.5746
▁여겨	-10.5753
▁업무를	-10.5755
▁출간	-10.5763
▁주소	-10.5764
▁방정식	-10.5765
라스	-10.5765
慶	-10.5774
▁트레	-10.5776
▁의문	-10.5776
▁불가능	-10.5776
▁논란	-10.5777
앤	-10.5777
▁1926	-10.5777
▁압력	-10.5778
年	-10.578
▁전한	-10.5781
▁섬식	-10.5784
▁포함하는	-10.5784
차례	-10.5787
▁문을	-10.5789
me	-10.5798
▁페르	-10.5799
▁단독	-10.5799
▁숙종	-10.5805
_8	-10.5805
선거	-10.5807
▁브레	-10.5809
▁목성	-10.5811
▁못한다	-10.5812
▁흰색	-10.5813
▁추가로	-10.5814
-20	-10.5818
▁맺	-10.5819
널	-10.5819
▁보이지	-10.582
작전	-10.5823
_	-10.5826
▁명칭을	-10.5828
ate	-10.5828
수록	-10.5829
학을	-10.583
미국	-10.5832
2%	-10.5832
▁HD	-10.5833
▁피터	-10.5835
▁유래	-10.5835
▁물을	-10.5836
▁붙여	-10.5839
▁경력	-10.5841
▁혈	-10.5842
▁방법은	-10.5843
▁동일본	-10.5843
▁증언	-10.5844
▁원인	-10.5845
▁높아	-10.5845
▁종목	-10.5845
▁검토	-10.5847
▁별도의	-10.5847
▁북아메리카	-10.5848
主	-10.5848
▁탄압	-10.5849
▁호는	-10.5849
▁특징을	-10.5852
▁진영	-10.5853
▁노리	-10.5854
▁수단	-10.5855
코스	-10.5857
▁구성하는	-10.5857
칙	-10.5863
▁전술	-10.5864
연구원	-10.5867
▁부지	-10.5868
▁하기도	-10.5869
▁최우수	-10.5876
▁해야	-10.5876
▁대통령의	-10.5877
▁롤	-10.5884
▁법정	-10.5885
▁굳	-10.5885
3%	-10.5886
▁그리스어	-10.5887
▁마쓰	-10.5888
▁고유	-10.5889
먹	-10.5891
▁도쿠가와	-10.5892
배우	-10.5893
들에서	-10.5895
▁게임을	-10.5895
▁안동	-10.5898
중인	-10.5898
▁광복	-10.5904
▁인류	-10.5904
▁바람	-10.5905
信	-10.5905
▁본선에	-10.591
▁배경으로	-10.5913
▁참여한	-10.5914
da	-10.592
당한	-10.5922
▁순환	-10.5922
노스	-10.5922
▁열리는	-10.5923
▁만들기	-10.5924
▁조상	-10.5926
▁방언	-10.5931
▁골키퍼	-10.5932
▁구글	-10.5933
▁검색	-10.5935
▁본격적으로	-10.5939
마을	-10.594
▁메리	-10.5942
▁최대의	-10.5943
박물관	-10.5944
르트	-10.5944
틸	-10.5948
▁연락	-10.5949
▁1912	-10.5952
▁보여주는	-10.5953
▁참고	-10.5961
됨에	-10.5967
컨	-10.5967
▁심판	-10.5968
▁지속적으로	-10.5968
로운	-10.5969
▁개념을	-10.5973
▁문제는	-10.5973
비가	-10.5974
▁활성화	-10.5974
▁그렇다면	-10.5976
▁조카	-10.5979
지기	-10.5979
▁전투를	-10.598
▁화재	-10.5981
▁프로그래밍	-10.5984
▁계속해서	-10.5987
▁폐쇄	-10.5987
全	-10.5989
공간	-10.5993
▁48	-10.5994
ong	-10.5997
「	-10.5998
▁맨체스터	-10.6
▁정치인	-10.6001
▁형사	-10.6002
▁서울시	-10.6002
▁원수	-10.6006
▁모바일	-10.6007
물질	-10.6011
▁명단에	-10.6012
▁닥터	-10.6013
학원	-10.6014
구의	-10.6017
▁총독	-10.6018
▁물리학	-10.602
▁연평균	-10.6021
▁요코하마	-10.6023
ag	-10.6024
부분	-10.6027
ca	-10.603
▁노선을	-10.6032
▁에스	-10.6036
▁촌	-10.6037
넌	-10.6037
▁마시	-10.6043
▁권리를	-10.6043
▁써	-10.6047
까지는	-10.6048
▁나고야	-10.6048
▁단순히	-10.605
▁찬성	-10.6053
페이	-10.6054
세력	-10.6054
▁라틴어	-10.6059
–	-10.6062
▁산소	-10.6063
재위	-10.6068
▁사정	-10.6069
▁수치	-10.607
▁그녀가	-10.6072
▁논쟁	-10.6072
▁특별히	-10.6075
▁이벤트	-10.6075
▁충분히	-10.6076
▁최근에는	-10.6076
히로	-10.6078
▁지었다	-10.6079
뇌	-10.6081
▁축소	-10.6081
디스	-10.6084
방식	-10.6094
▁열매	-10.6095
▁쥐	-10.6096
▁1907	-10.6096
▁동경	-10.6097
▁몸을	-10.6098
▁주식	-10.6101
테스	-10.6102
리와	-10.6105
식물	-10.6109
▁돌아와	-10.611
▁기소	-10.6113
▁수십	-10.6115
닐	-10.6116
▁분쟁	-10.6119
▁?)	-10.6124
▁신장	-10.6125
▁1927	-10.6126
論	-10.6127
낙	-10.6132
▁끝내	-10.6133
▁이웃	-10.6133
▁힙합	-10.6134
▁가량	-10.6134
▁대학원	-10.6134
▁상을	-10.6134
타카	-10.6135
pe	-10.6135
▁밝혀	-10.6136
▁복잡	-10.6137
▁소멸	-10.6138
입니다	-10.614
▁개체	-10.6141
▁규제	-10.6142
퍼드	-10.6143
▁액체	-10.6144
보호	-10.6145
▁이외의	-10.6146
페르	-10.6148
▁캠퍼스	-10.6149
자유	-10.6151
▁보상	-10.6151
주로	-10.6156
▁몬	-10.6157
▁주석	-10.6157
ity	-10.6158
▁피해자	-10.6161
▁화석	-10.6162
Re	-10.6162
▁레알	-10.6163
▁사람들에게	-10.6164
▁한정	-10.6165
▁정교회	-10.6168
▁부르기도	-10.6169
▁골든	-10.6171
▁64	-10.6172
되어야	-10.6173
▁밝은	-10.6173
▁클래식	-10.6177
▁심장	-10.6179
▁프리미어리그	-10.6183
松	-10.6185
▁프레	-10.6186
▁쌀	-10.6186
▁총재	-10.6187
드리	-10.6188
▁발표된	-10.619
▁계곡	-10.6191
▁토론토	-10.6193
▁있	-10.6194
▁사건은	-10.6196
하시	-10.6197
民	-10.6199
프트	-10.6203
▁태양의	-10.6206
▁사찰	-10.6211
상으로	-10.6216
▁보험	-10.6217
▁차단	-10.6217
1%	-10.6223
8%	-10.6224
보이	-10.6224
▁1908	-10.6229
▁민중	-10.6233
▁견해	-10.6234
▁그들을	-10.6234
▁단선	-10.6235
▁정면	-10.6236
▁일종의	-10.6237
▁교회의	-10.624
▁소집	-10.6241
▁자금	-10.6241
넨	-10.6245
▁수술	-10.6245
▁데이	-10.6248
▁정확히	-10.6249
부문	-10.6252
▁리그에서	-10.6252
구치	-10.6256
▁독립을	-10.6257
▁1917	-10.6257
▁수리	-10.6257
▁출신이다	-10.6258
▁동해	-10.6258
하였다고	-10.6259
▁직무	-10.626
▁임무를	-10.6263
있	-10.6264
▁출연하였다	-10.6265
국이	-10.6265
▁주목	-10.6266
▁이외에도	-10.6267
▁고급	-10.6268
4%	-10.6269
中學校	-10.6269
▁했는데	-10.6274
토리	-10.6278
▁등장인물	-10.628
뒤	-10.628
▁경기가	-10.6281
▁사랑을	-10.6282
▁호소	-10.6286
장관	-10.6286
▁그러므로	-10.6287
▁부진	-10.6287
▁형상	-10.6289
짓	-10.6289
▁출연했다	-10.6289
시가	-10.6292
▁소화	-10.6296
▁전해	-10.6297
▁주장하는	-10.6299
카르	-10.6301
마사	-10.631
비는	-10.6311
▁정조	-10.6313
十	-10.6314
▁자국	-10.6314
▁다음의	-10.6316
▁모습이	-10.6317
쟁	-10.6319
더스	-10.6323
▁할아버지	-10.6325
쇄	-10.6332
얀	-10.6336
▁트레이드	-10.6336
자들의	-10.6338
▁승진	-10.6338
▁마주	-10.6341
▁무한	-10.6342
티아	-10.6344
000	-10.6345
▁1905	-10.6345
▁개국	-10.6346
▁집에	-10.6349
▁김영	-10.6351
▁왕조의	-10.6354
▁사임	-10.6359
에서만	-10.636
▁의미로	-10.6362
▁영국에서	-10.6362
▁캐나다의	-10.6363
▁톰	-10.6364
것	-10.6368
▁라고	-10.637
▁추구	-10.6371
▁연산	-10.6371
後	-10.6371
▁대우	-10.6375
시키	-10.6376
▁사법	-10.6376
▁사퇴	-10.6378
▁계층	-10.638
▁대다수	-10.6383
▁손을	-10.6385
▁대구광역시	-10.6385
▁포함되었다	-10.6386
▁경남	-10.6389
오스	-10.639
▁섬에	-10.639
▁마법	-10.6391
▁소련군	-10.6392
▁대법원	-10.6392
佛	-10.6396
樂	-10.6396
▁유치	-10.6396
▁장남	-10.6398
▁윌	-10.64
▁티베트	-10.6407
▁직전	-10.6418
▁이용할	-10.642
겸	-10.642
▁농민	-10.642
月	-10.6421
▁120	-10.6425
▁헌	-10.6427
▁용어	-10.6431
▁갖게	-10.6432
▁해상	-10.6433
씨는	-10.6433
▁안내	-10.6434
▁문화재	-10.6436
위원장	-10.6437
자료	-10.6437
▁커다란	-10.6438
▁시사	-10.6439
▁사자	-10.6445
등급	-10.6445
▁무시	-10.6446
▁북미	-10.6447
▁중반	-10.6447
▁감각	-10.6448
▁전문가	-10.6448
▁사람으로	-10.6454
▁통계	-10.6456
▁성과	-10.6456
계에	-10.6458
▁노출	-10.6461
▁이재	-10.6463
도르	-10.6463
▁그들	-10.6463
▁제도를	-10.6466
▁이어지는	-10.6468
하다는	-10.6469
劉	-10.6471
▁부속	-10.6471
동물	-10.6473
▁영구	-10.6476
년부터는	-10.6477
▁어렵다	-10.6478
▁결승전에서	-10.6478
▁성공했다	-10.6478
마이	-10.6479
▁히트	-10.6479
▁강요	-10.6479
▁롱	-10.6484
답	-10.6484
치가	-10.6484
▁자신	-10.6485
▁김구	-10.6488
만으로	-10.6488
▁김정	-10.6489
므로	-10.6492
▁SS	-10.6494
▁전원	-10.6495
능력	-10.6495
권에	-10.6497
淸	-10.6498
ud	-10.6498
▁사막	-10.65
러스	-10.6501
知	-10.6502
▁정식으로	-10.6504
▁통화	-10.6504
▁핫	-10.6508
인과	-10.6509
▁보이	-10.6512
▁야스	-10.6513
▁전쟁의	-10.6516
▁마음을	-10.6521
숭	-10.6521
쯤	-10.6524
▁아버지가	-10.6526
틱	-10.6526
▁주니어	-10.6527
▁탐	-10.6529
▁방위	-10.6531
▁그려져	-10.6533
八	-10.6535
▁그때	-10.6535
▁St	-10.6537
▁유럽에서	-10.6541
▁죽음을	-10.6544
였는데	-10.6547
▁협	-10.6548
▁로스	-10.6551
▁홈런을	-10.6553
禮	-10.6553
▁의견	-10.6556
▁보유	-10.6557
同	-10.6563
중국	-10.6569
▁초반	-10.6569
놀	-10.657
▁집필	-10.6572
▁남녀	-10.6575
▁원칙	-10.6576
감독	-10.6577
▁자이언츠	-10.6578
▁1906	-10.658
▁사유	-10.658
▁저자	-10.6582
▁고등	-10.6583
▁대한제국	-10.6585
▁러	-10.6588
7%	-10.6589
식은	-10.6593
▁취득	-10.6596
심을	-10.6596
▁보스턴	-10.6597
ow	-10.6598
▁종전	-10.6598
▁윈도	-10.6599
자에게	-10.6603
▁게임이다	-10.6607
▁산하	-10.6608
▁협정	-10.6609
▁많	-10.6612
▁바르셀로나	-10.6614
▁실천	-10.6615
▁지불	-10.6622
▁신고	-10.6623
▁이기	-10.6625
▁허가	-10.663
▁켄	-10.6632
▁왕의	-10.6634
▁내리	-10.6636
▁아버지의	-10.6637
▁개량	-10.6639
▁양산	-10.664
콩	-10.664
OS	-10.6642
▁사람이다	-10.6644
▁정기	-10.6647
▁h	-10.6647
▁이들이	-10.6647
▁본토	-10.6648
▁주연	-10.6648
▁이행	-10.665
京	-10.665
方	-10.6654
년경	-10.666
데르	-10.6661
▁밥	-10.6661
▁재단	-10.6661
▁코파	-10.6661
6%	-10.6662
기록	-10.6663
브리	-10.6663
▁배포	-10.6664
어가	-10.6664
▁상황이	-10.6666
▁놓여	-10.6668
▁이익	-10.6673
tion	-10.6673
▁안타	-10.6674
형으로	-10.6677
▁바둑	-10.6678
孝	-10.668
▁고양이	-10.668
▁김대중	-10.6682
자로서	-10.6682
▁덮	-10.6686
▁상태를	-10.6688
▁부분에	-10.6692
▁쿠바	-10.6695
쇠	-10.6696
▁물리	-10.6696
종이	-10.6697
si	-10.6697
▁일련의	-10.6702
▁영향으로	-10.6704
▁연습	-10.6707
▁크리	-10.671
▁영조	-10.6712
▁담고	-10.6713
▁codice	-10.6713
▁후속	-10.6715
▁정부에	-10.6717
▁국방	-10.6721
▁산지	-10.6724
▁곡선	-10.6726
TA	-10.6726
부로	-10.6726
▁Co	-10.6729
="	-10.6731
▁무인	-10.6732
▁맺고	-10.6733
▁지붕	-10.6733
▁예비	-10.6734
▁시작했고	-10.6735
▁가시	-10.6737
▁삶을	-10.6738
▁이어서	-10.6739
▁해협	-10.6739
계에서	-10.674
▁국기	-10.6741
▁초기에는	-10.6741
▁문화재자료	-10.6742
▁t	-10.6749
▁주위	-10.6755
▁스티븐	-10.6757
▁접속	-10.6765
건설	-10.6765
▁히로시마	-10.6765
피스	-10.6767
▁강등	-10.6768
구에	-10.6768
ti	-10.6769
어와	-10.6769
▁뛰	-10.677
▁사과	-10.6771
▁본명은	-10.6772
▁좁은	-10.6772
▁열었다	-10.6776
혹	-10.6777
▁오류	-10.6777
權	-10.6779
▁줄기	-10.6782
▁역사가	-10.6787
▁평면	-10.6787
라이트	-10.6787
▁남아메리카	-10.679
았으며	-10.6794
▁착용	-10.68
-5	-10.6804
▁택	-10.6807
▁개장	-10.6808
▁남아프리카	-10.6809
켓	-10.6811
▁적극적으로	-10.6812
▁구름	-10.6814
▁김성	-10.6821
▁발매한	-10.6822
▁틀	-10.6824
▁듯	-10.6825
▁악화	-10.6828
▁성질	-10.6828
▁전작	-10.6828
▁이시	-10.6829
되는데	-10.6829
▁희생	-10.6833
▁주인	-10.6835
▁재생	-10.6836
▁OS	-10.6837
▁속해	-10.6837
만명	-10.684
▁인지	-10.684
▁타자	-10.6841
로프	-10.6841
▁왕실	-10.6843
羅	-10.6844
▁유효	-10.6846
▁하우스	-10.6847
통일	-10.6848
oc	-10.6848
려는	-10.6851
▁공통	-10.6854
▁하나가	-10.6854
공주	-10.6855
▁이곳에	-10.6857
장과	-10.6859
▁초청	-10.6861
▁발휘	-10.6862
▁넣	-10.6862
▁글로벌	-10.6864
▁띠	-10.6865
부터는	-10.6867
▁임시정부	-10.6868
▁많았다	-10.6868
▁페이	-10.6868
과정	-10.6869
받고	-10.6869
▁밑	-10.6875
▁명칭으로	-10.6876
조차	-10.6879
In	-10.6884
▁대결	-10.6886
▁매주	-10.6887
▁대칭	-10.6887
▁달하는	-10.6889
▁해리	-10.689
▁경향이	-10.6892
圖	-10.6893
군단	-10.6896
합니다	-10.6896
帝	-10.6898
)>	-10.69
▁맺었다	-10.69
겔	-10.6906
▁학사	-10.6907
▁분위기	-10.6908
▁그리스의	-10.6908
▁후에도	-10.6915
▁내지	-10.6918
▁경고	-10.6919
▁대부분을	-10.6921
었	-10.6925
▁한일	-10.6925
▁JR	-10.693
▁원래는	-10.693
▁스키	-10.6932
▁주된	-10.6932
꼬리	-10.6934
_9	-10.6938
▁낸	-10.6939
▁배열	-10.6939
단이	-10.6941
▁인디언	-10.6942
▁여부	-10.6946
역사	-10.6946
▁포함된다	-10.6946
▁상수	-10.6947
▁당시에	-10.6948
▁끝으로	-10.6949
▁양국	-10.6949
▁참가하였다	-10.695
▁물체	-10.6951
▁기법	-10.6952
▁차원	-10.6954
▁반대하는	-10.6955
▁국방부	-10.6957
▁사항	-10.6957
▁옮겼다	-10.6959
▁되기도	-10.6959
▁베이스	-10.696
▁명명	-10.6962
리안	-10.6963
▁덜	-10.6963
이스	-10.6965
▁입사	-10.6965
▁김씨	-10.6966
▁영토를	-10.6971
▁출연하였고	-10.6977
▁짜	-10.6977
▁해발	-10.6979
▁비판을	-10.6981
▁편지	-10.6981
▁식품	-10.6984
▁소형	-10.6988
▁드러나	-10.6992
▁41	-10.6993
▁우리나라	-10.6996
▁의혹	-10.6998
▁세계의	-10.6998
▁소송	-10.6999
▁비롯해	-10.7004
go	-10.7005
부장	-10.7008
▁후인	-10.7009
▁죽자	-10.7012
▁사용하지	-10.7013
▁토벌	-10.7014
쿠스	-10.7014
헬	-10.7016
▁단순	-10.7017
NA	-10.7017
▁전북	-10.7017
▁어려움	-10.7019
▁잡고	-10.7019
눈	-10.702
권은	-10.702
(3	-10.7021
▁회색	-10.7023
化	-10.7024
通	-10.7024
속에	-10.7025
▁감독은	-10.7026
▁다음날	-10.7027
▁조선인	-10.7032
▁물고기	-10.7033
량은	-10.7034
잎	-10.7038
▁자매	-10.704
▁빙	-10.7042
▁상호작용	-10.7044
▁등판	-10.7044
▁중동	-10.7045
▁로마의	-10.7048
▁첫째	-10.7049
▁수석	-10.705
▁위치에	-10.7054
▁전형적인	-10.7054
▁입은	-10.7054
층에	-10.7054
▁반응을	-10.7054
▁플로	-10.7056
▁보이고	-10.7057
▁세리에	-10.7058
sh	-10.7059
▁이념	-10.7061
▁일어난다	-10.7062
안을	-10.7064
크는	-10.7065
▁뒤로	-10.7066
▁기기	-10.7068
▁히틀러	-10.7068
▁몰	-10.7075
▁페이지	-10.7078
▁모르	-10.708
▁곳이	-10.708
▁일은	-10.7081
sa	-10.7082
▁군수	-10.7083
▁잭	-10.7084
▁방송을	-10.7085
▁유비	-10.7085
▁총선에서	-10.7088
▁읽	-10.709
▁You	-10.7092
▁총장	-10.7094
▁한국에서	-10.7095
▁소위	-10.7096
▁유전	-10.7096
▁복수	-10.7096
市	-10.71
▁실내	-10.7106
▁현장	-10.7106
EC	-10.7112
▁거리에	-10.7113
▁선로	-10.7115
▁미국으로	-10.7117
대학원	-10.7117
▁출전하여	-10.7124
▁클로	-10.7124
▁셰	-10.7125
ance	-10.7125
들로부터	-10.7126
▁후퇴	-10.7129
▁행정구역이다	-10.7131
속도	-10.7132
▁학술	-10.7132
▁때문	-10.7133
▁()	-10.7135
▁공학	-10.7135
▁발표되었다	-10.7139
▁크리스	-10.7144
형의	-10.7148
▁코스	-10.7149
и	-10.7151
▁명문	-10.7153
▁그러	-10.7153
▁방송된	-10.7154
아르	-10.7155
▁소방	-10.7155
업체	-10.7156
▁부상으로	-10.7157
bo	-10.716
▁편의	-10.716
▁수호	-10.7161
士	-10.7161
▁올린	-10.7162
▁교구	-10.7163
드로	-10.7163
▁알파	-10.7163
▁내셔널	-10.7166
▁자치구	-10.7166
▁블록	-10.7167
▁스미스	-10.7167
지자	-10.7168
▁옆에	-10.7168
▁상황에	-10.7169
▁근처	-10.7171
체의	-10.7174
▁진단	-10.7177
▁레오	-10.7179
현재	-10.718
▁미국은	-10.718
(6	-10.7183
▁주민들	-10.7183
호선의	-10.7184
▁서일본	-10.7186
▁방법이	-10.7187
▁한신	-10.7187
▁잠수함	-10.7192
서원	-10.7194
어의	-10.7195
▁부임	-10.7198
▁웨	-10.7198
▁유기	-10.72
식으로	-10.7203
▁추방	-10.7205
프리	-10.7206
▁인터뷰에서	-10.7206
▁재즈	-10.7206
▁웨일스	-10.7207
ive	-10.7208
리의	-10.7211
▁맡	-10.7212
о	-10.7214
다리	-10.7214
ER	-10.7215
▁번호	-10.7218
▁흐름	-10.7219
▁삭제	-10.7219
▁새벽	-10.7223
▁콜롬비아	-10.7227
▁차트에서	-10.7227
▁하와이	-10.7229
▁막기	-10.7229
洪	-10.723
孫	-10.723
▁영양	-10.7234
▁불화	-10.7236
▁대량	-10.7236
art	-10.7237
▁운항	-10.7238
▁아메리칸	-10.724
▁리이다	-10.7245
웰	-10.7247
▁–	-10.7247
▁고위	-10.7251
▁주재	-10.7252
▁갈등	-10.7253
일간	-10.7254
차로	-10.7256
▁웹사이트	-10.7262
졌으며	-10.7263
pa	-10.7268
▁개명	-10.7269
▁데뷔했다	-10.7272
보험	-10.7276
▁강하게	-10.7277
▁백인	-10.7277
▁항해	-10.7278
▁예로	-10.7281
ty	-10.7285
▁머물	-10.7285
▁차지하였다	-10.7287
▁소속의	-10.7287
▁뮤직비디오	-10.7288
▁상태가	-10.7289
타로	-10.7289
▁1904	-10.7298
꾼	-10.73
▁삼았다	-10.7302
▁농촌	-10.7302
되지만	-10.7304
▁세력이	-10.7305
▁격파	-10.7307
▁유배	-10.731
었을	-10.7313
do	-10.7313
字	-10.7316
훈련	-10.7318
대부	-10.7318
들어	-10.732
▁뜻이다	-10.7329
▁주에	-10.7331
▁또다른	-10.7331
협의회	-10.7332
▁인조	-10.7333
▁서기	-10.7334
▁리드	-10.7336
▁압축	-10.7336
첨	-10.7337
▁겪	-10.7337
▁부탁	-10.7344
하라는	-10.7346
▁세워진	-10.7346
프랑스	-10.7347
▁토마스	-10.7349
▁끊	-10.7356
소가	-10.7356
▁잇	-10.7357
▁43	-10.7357
▁좋다	-10.7359
▁음반이다	-10.7363
▁산화	-10.7363
▁선형	-10.7365
華	-10.7366
▁야당	-10.7368
지와	-10.7369
▁800	-10.737
▁규슈	-10.7371
▁건물은	-10.7373
▁과학적	-10.7374
▁600	-10.7375
▁행정구역	-10.7375
▁전남	-10.7376
▁국가들	-10.7376
黃	-10.7378
▁화이트	-10.7385
▁의견을	-10.7386
▁빅토리아	-10.7387
▁가이	-10.7388
▁운송	-10.7389
검사	-10.7389
분야	-10.7389
▁프로세서	-10.739
▁부서	-10.7394
당은	-10.7394
▁신사	-10.7396
▁설립한	-10.7398
▁삽입	-10.7402
▁방지	-10.7403
▁이상을	-10.7404
▁사건에	-10.7404
▁나이에	-10.7404
▁사기	-10.7404
內	-10.7405
구가	-10.7408
▁조별	-10.7409
▁소득	-10.741
▁거친	-10.7412
▁끌	-10.7417
▁사격	-10.7419
▁돌아왔다	-10.7422
▁이르기까지	-10.7422
▁가치를	-10.7426
age	-10.7431
▁무릎	-10.7433
~20	-10.7433
▁생애	-10.7433
법으로	-10.7434
▁캘리포니아주	-10.7436
侯	-10.7437
▁재위	-10.7438
▁쇠	-10.7443
프는	-10.7445
닥	-10.7447
▁스웨덴의	-10.7447
하면서도	-10.7451
二	-10.7452
▁나폴리	-10.7455
▁데이터를	-10.7462
킬	-10.7465
▁자식	-10.7468
▁차지한다	-10.747
▁댄스	-10.747
▁박근혜	-10.7471
9%	-10.7473
▁페루	-10.7475
▁진실	-10.7479
▁이론을	-10.7479
에너지	-10.7481
▁억제	-10.7481
▁현상을	-10.7482
▁파울	-10.7482
(13	-10.7484
▁매체	-10.7485
▁영혼	-10.7486
▁행위를	-10.7491
▁징	-10.7492
▁올해의	-10.7494
▁돌파	-10.75
▁구에	-10.75
▁개별	-10.7501
my	-10.7502
名	-10.7504
▁상원	-10.7504
▁주문	-10.7504
▁테마	-10.7505
▁야마	-10.7505
▁알고리즘	-10.7506
▁창간	-10.751
▁싸움	-10.7511
트의	-10.7512
▁발전을	-10.7512
▁독일어	-10.7513
雲	-10.7516
형이	-10.7516
▁발발	-10.7516
▁드라마이다	-10.7518
▁구사	-10.7519
▁작품이	-10.7519
▁되었는데	-10.7521
물로	-10.7522
▁고안	-10.7522
▁클라	-10.7527
▁모음	-10.7527
▁제외하고	-10.7529
▁바닥	-10.7532
▁경제학	-10.7533
뉴스	-10.7533
▁대해서도	-10.7535
이후	-10.7536
▁않았지만	-10.7536
대대	-10.7539
▁얼	-10.7539
이라며	-10.7541
▁타임	-10.7541
법원	-10.7543
▁마틴	-10.7544
▁정도이다	-10.7545
브로	-10.7549
▁웨이	-10.755
▁미분	-10.755
▁지휘관	-10.755
함이	-10.7551
▁모양으로	-10.7555
end	-10.7558
▁강도	-10.7559
tic	-10.7562
▁입법	-10.7562
▁고객	-10.7563
▁전체적으로	-10.7569
▁1896	-10.7569
▁빌딩	-10.7569
산성	-10.757
▁공국	-10.757
▁도중에	-10.7575
▁쓴다	-10.7576
법의	-10.7577
▁기능이	-10.7578
▁사도	-10.7579
정신	-10.7579
▁포로	-10.758
였기	-10.7582
▁투구	-10.7584
▁십자군	-10.759
▁평등	-10.759
처리	-10.759
▁붙어	-10.7591
▁투쟁	-10.7592
×	-10.7593
▁액	-10.7594
▁심지어	-10.7595
重	-10.7599
▁미치	-10.7603
에게도	-10.7607
ai	-10.761
▁한나라당	-10.761
ni	-10.7611
▁변신	-10.7611
▁자본주의	-10.7615
▁개인의	-10.7618
▁경로	-10.7619
쿠라	-10.762
성으로	-10.7622
▁받으며	-10.7625
▁관계에	-10.7628
▁중지	-10.7629
령을	-10.7631
▁47	-10.7631
▁자녀	-10.7632
황제	-10.7634
▁이루어진다	-10.7636
▁포함된	-10.7636
▁들었다	-10.7642
▁소요	-10.7644
▁코르	-10.7644
▁재료	-10.7644
▁주목을	-10.7647
▁손에	-10.7647
리지	-10.765
▁44	-10.7652
▁체험	-10.7657
▁독점	-10.7657
주의를	-10.7658
▁명시	-10.7661
▁하던	-10.7663
▁선거구	-10.7665
▁다루는	-10.7665
종으로	-10.7666
▁까지	-10.7666
▁위대한	-10.7666
상이	-10.7666
기능	-10.767
▁결의	-10.767
▁지중해	-10.7671
▁전승	-10.7672
▁짐	-10.7672
▁직선	-10.7673
▁Be	-10.7673
▁동서	-10.7675
호의	-10.7675
▁숭	-10.7677
▁땅을	-10.7678
ec	-10.768
텍	-10.7683
吉	-10.7683
▁임신	-10.7684
▁세금	-10.7688
▁타워	-10.7693
▁흉	-10.7693
ind	-10.7693
ner	-10.7696
▁출현	-10.7696
시를	-10.7696
▁없지만	-10.7697
▁바깥	-10.7698
▁약탈	-10.7699
IS	-10.7699
▁사건의	-10.77
▁75	-10.7701
들이다	-10.7703
▁회사의	-10.7709
▁요인	-10.771
▁연계	-10.7711
▁주변에	-10.7712
회에	-10.7714
▁1,000	-10.7717
▁돌려	-10.7717
▁주변의	-10.7722
〈	-10.7723
▁대성당	-10.7724
▁세우고	-10.7726
▁일곱	-10.7726
중이다	-10.7728
▁자신은	-10.7729
▁경사	-10.773
▁텍사스	-10.773
▁가을	-10.7732
▁최종적으로	-10.7733
▁늑대	-10.7733
▁지향	-10.7734
층의	-10.7736
▁중에서도	-10.7736
▁주체	-10.7739
판을	-10.7741
▁지원하는	-10.775
▁기본적인	-10.7755
차전에서	-10.7756
▁발생한다	-10.7756
▁알려	-10.7758
▁이어져	-10.7758
▁접하고	-10.7759
▁이곳에서	-10.776
▁에너지를	-10.7761
▁동반	-10.7765
이거나	-10.7769
▁전해진다	-10.7771
AR	-10.7772
▁영국과	-10.7774
OR	-10.7775
▁불리며	-10.7776
▁봉기	-10.7777
마치	-10.7779
▁명으로	-10.7781
▁공개되었다	-10.7781
▁가족들	-10.7782
▁양의	-10.7784
守	-10.7784
▁집을	-10.7785
하였을	-10.7786
▁성격을	-10.7789
개혁	-10.7792
▁졸업한	-10.7793
▁거두	-10.7793
년까지는	-10.7794
인으로	-10.7795
▁탁	-10.7799
▁폐지되었다	-10.7799
성군	-10.7801
時	-10.7804
물이	-10.7804
단은	-10.7806
▁전체를	-10.781
콤	-10.781
ap	-10.7813
驛	-10.7813
▁자체가	-10.7815
▁법적	-10.7816
▁광산	-10.7817
▁종사	-10.7817
위의	-10.7819
▁작품의	-10.7819
▁밖으로	-10.7819
▁기부	-10.7819
뇨	-10.7821
▁이정	-10.7822
▁대학교의	-10.7825
중심	-10.7826
랜	-10.7826
▁있어야	-10.7828
리고	-10.7828
▁가톨릭교회	-10.7829
▁팬들	-10.7829
즘	-10.7833
▁46	-10.7833
주의자	-10.7834
▁주어진	-10.7835
▁일상	-10.7836
▁조항	-10.7836
▁기용	-10.7837
▁스승	-10.7839
▁촉진	-10.784
▁원하는	-10.7842
축구	-10.7843
▁독자	-10.7845
▁살았다	-10.7847
▁겨우	-10.7856
▁삼아	-10.7863
하지는	-10.7863
밥	-10.7863
▁지켜	-10.7866
▁철거	-10.7868
▁관점	-10.7868
재단	-10.7869
▁구상	-10.787
포트	-10.7873
鎭	-10.7875
▁적응	-10.7875
체제	-10.7876
단으로	-10.7877
下	-10.7878
커스	-10.7878
ba	-10.7879
▁맞춰	-10.7879
▁그녀를	-10.788
▁스테	-10.788
▁고등학교이다	-10.7882
▁홈페이지	-10.7883
▁회로	-10.7883
천만	-10.7884
▁이종	-10.7885
▁제주도	-10.7885
▁밀라노	-10.7888
▁이용하는	-10.7891
표를	-10.7894
▁복사	-10.7897
▁앨범을	-10.7897
▁오다	-10.7898
▁교수로	-10.7898
▁왕가	-10.7898
▁맞는	-10.7898
▁일으키	-10.7899
전문	-10.79
개로	-10.7903
뼈	-10.7905
▁아프가니스탄	-10.7905
▁수도권	-10.7906
집단	-10.7908
em	-10.7908
▁적극	-10.791
▁얻게	-10.7911
▁x	-10.7912
▁동화	-10.7913
▁스카이	-10.7913
▁선물	-10.7914
닫	-10.7916
▁그래프	-10.7916
▁제자	-10.7918
▁사촌	-10.792
념	-10.7923
▁토너먼트	-10.7924
▁공격수	-10.7928
▁상태에	-10.7929
▁진나라	-10.793
▁탑승	-10.793
리나	-10.7931
▁슬	-10.7931
렘	-10.7932
▁별로	-10.7933
하겠다고	-10.7934
▁레이다	-10.7936
단에	-10.7936
▁마케도니아	-10.7936
物	-10.7936
▁꾸준히	-10.7936
▁크기가	-10.7937
▁웅	-10.7943
▁알바니아	-10.7945
▁농장	-10.795
▁레벨	-10.7951
▁뼈	-10.7952
▁유역	-10.7952
▁1911	-10.7952
제품	-10.7953
▁용어는	-10.7955
▁쌓	-10.7955
▁부호	-10.7955
▁구성된다	-10.7956
여자	-10.7958
▁매각	-10.7959
▁셋째	-10.7962
▁인근에	-10.7962
계약	-10.7963
ice	-10.7964
▁라는	-10.7964
▁알렉산더	-10.7965
▁수직	-10.7966
▁가나	-10.7968
▁아들이다	-10.7969
▁신뢰	-10.7971
▁사회의	-10.7971
체가	-10.7972
CC	-10.7976
체계	-10.7978
선과	-10.7978
▁분산	-10.7978
▁조종	-10.7979
400	-10.7982
▁강을	-10.7984
▁의미가	-10.7985
▁북쪽에	-10.7987
▁고기	-10.7987
▁식량	-10.7987
▁적어도	-10.7989
씨의	-10.7991
▁지방에	-10.7992
▁비슷	-10.7993
▁기관차	-10.7994
▁삶	-10.7995
▁담은	-10.7996
▁수감	-10.7997
▁아스	-10.7998
▁추적	-10.7998
▁명칭이	-10.8002
▁요미우리	-10.8003
▁증상	-10.8003
land	-10.8007
▁쇠퇴	-10.8011
▁곳은	-10.8012
ip	-10.8013
▁주최	-10.8014
社	-10.8015
▁모토	-10.8016
국은	-10.8019
▁건축물	-10.802
▁기반을	-10.8021
당의	-10.8021
▁죽고	-10.8021
▁들여	-10.8022
▁말기	-10.8022
▁관계는	-10.8025
▁상영	-10.8026
▁커버	-10.8028
▁수밖에	-10.8028
▁먹는다	-10.8033
▁지역구	-10.8033
▁BBC	-10.8034
선으로	-10.8035
▁연호	-10.8036
▁k	-10.8041
ide	-10.8041
▁크루	-10.8041
▁묘소	-10.8043
주었다	-10.8043
▁마치고	-10.8043
▁모델로	-10.8044
▁중국에서	-10.8046
▁역전	-10.8046
▁라이벌	-10.8046
▁상처	-10.8047
▁수록되어	-10.805
▁실제로는	-10.805
▁친일	-10.8052
▁골드	-10.8055
강에	-10.8055
▁진술	-10.8057
600	-10.8057
▁다르	-10.8058
▁파키스탄	-10.8058
자원	-10.8059
▁딴	-10.806
St	-10.8061
▁한강	-10.8067
▁면적	-10.8067
▁실력	-10.8067
TO	-10.8068
au	-10.8069
▁왕위	-10.807
상은	-10.807
▁봉해졌다	-10.8071
▁특허	-10.8072
▁집회	-10.8073
▁곧바로	-10.8078
▁면에서	-10.8079
▁후쿠오카	-10.808
ph	-10.8086
集	-10.8086
프라	-10.8086
▁서쪽으로는	-10.8087
▁환승	-10.8087
▁소규모	-10.8088
방법	-10.8089
▁지정되어	-10.809
▁크기는	-10.809
▁로즈	-10.809
兵	-10.8091
▁소관	-10.8094
해져	-10.8095
▁지나지	-10.8098
았	-10.8103
▁빌리	-10.8103
▁명성을	-10.8106
▁중구	-10.8106
▁결과로	-10.8108
▁이루어	-10.8109
▁먹는	-10.8111
▁수준의	-10.8114
▁차지하는	-10.8114
▁설치되었다	-10.8115
▁종족	-10.8116
▁먹이	-10.8119
상에	-10.812
▁이날	-10.8122
▁약물	-10.8122
▁탐사	-10.8123
▁소리를	-10.8125
▁전향	-10.8126
be	-10.8128
qu	-10.8134
▁스트	-10.8134
여성	-10.8135
▁멸종	-10.8136
자들을	-10.814
▁시간에	-10.8141
철학	-10.8143
▁레이블	-10.8143
▁후반에	-10.8143
▁반환	-10.8144
네이	-10.8146
▁주요한	-10.8146
▁거절	-10.8146
▁동쪽으로는	-10.8152
▁추락	-10.8152
▁사람에게	-10.8152
듯	-10.8152
▁획득하였다	-10.8153
▁두번째	-10.8155
▁운동에	-10.8156
▁경전	-10.8157
木	-10.8158
▁소재지	-10.8159
▁히가시	-10.8161
▁시내버스	-10.8163
▁순수	-10.8163
▁일치	-10.8165
▁걷	-10.8166
▁종교적	-10.8167
▁하드	-10.8167
▁영지	-10.8168
▁내장	-10.8168
졸	-10.8169
정을	-10.8169
▁존스	-10.8171
▁법안	-10.8171
▁냈다	-10.8171
▁납치	-10.8172
▁이치	-10.8172
▁원자력	-10.8173
▁없기	-10.8174
La	-10.8174
▁망원경	-10.8176
▁남쪽으로는	-10.8177
▁올리	-10.8185
▁인도의	-10.8187
묵	-10.8188
前	-10.8188
▁사적	-10.8189
▁소비자	-10.8189
▁이하의	-10.819
▁충격	-10.8191
▁국장	-10.8196
▁지내고	-10.8196
었기	-10.8196
▁덕분에	-10.8197
▁근육	-10.8198
▁모래	-10.8199
▁색깔	-10.82
▁곤충	-10.8202
▁Ma	-10.8203
▁타입	-10.8206
▁비슷하다	-10.8207
▁모습으로	-10.8207
민주당	-10.8208
▁문화적	-10.8209
▁없었던	-10.821
▁사이를	-10.8212
寧	-10.8217
▁항공사	-10.8218
▁빵	-10.8221
代	-10.8221
、	-10.8221
▁플레	-10.8231
공신	-10.8232
▁주지	-10.8233
형은	-10.8233
▁거대	-10.8235
▁교향곡	-10.8236
럭	-10.8238
트가	-10.8239
▁아나	-10.8239
ak	-10.824
받	-10.8241
柳	-10.8242
▁아르메니아	-10.8243
▁시절에	-10.8245
▁원시	-10.8246
▁못하게	-10.8246
▁공간을	-10.8246
룩	-10.8247
分	-10.8247
▁나타난	-10.8247
적으로는	-10.8248
▁꺾	-10.8248
▁여성의	-10.825
▁그라	-10.8251
▁인기가	-10.8251
▁획득했다	-10.8253
▁타이틀을	-10.8257
▁부품	-10.826
▁리눅스	-10.826
▁선임	-10.8263
▁아래의	-10.8265
▁입었다	-10.827
▁법인	-10.8271
▁찍	-10.8273
일보	-10.8274
▁맛	-10.8275
▁책은	-10.8276
SS	-10.8277
대와	-10.828
모양	-10.8283
란트	-10.8285
판이	-10.8286
▁에르	-10.8287
이라면	-10.8289
ary	-10.8292
▁해제	-10.8292
▁이어졌다	-10.8292
▁지역이	-10.8295
▁정권을	-10.8296
우라	-10.8296
▁이성	-10.8297
順	-10.8298
진을	-10.8299
▁왕족	-10.83
▁개척	-10.83
▁하천	-10.8303
▁수백	-10.8304
▁대회이다	-10.8305
▁일으킨	-10.8307
시스템	-10.8307
▁대전광역시	-10.8307
▁졸업했다	-10.8308
하우스	-10.831
▁없	-10.831
▁오늘날의	-10.8311
ke	-10.8312
▁말해	-10.8315
▁일환으로	-10.8315
▁몸길이	-10.8316
▁역사는	-10.8318
▁여객	-10.832
▁개수	-10.8323
▁포르	-10.8325
▁없었고	-10.8328
▁자회사	-10.8328
포스	-10.8331
▁항목	-10.8332
▁풍부한	-10.8334
니는	-10.8335
IC	-10.834
습니다	-10.8342
▁흐르는	-10.8344
▁제공하고	-10.8346
di	-10.8346
리어	-10.8347
▁토론	-10.8348
靑	-10.835
800	-10.8352
헤이	-10.8353
▁지원한다	-10.8355
▁받	-10.8355
▁사직	-10.8356
300	-10.8358
번호	-10.8359
▁히데	-10.836
the	-10.836
▁바람에	-10.8361
▁유발	-10.8361
기지	-10.8364
▁우리가	-10.8365
▁영화의	-10.8366
▁대학에서	-10.8369
▁아니었다	-10.8371
▁아마추어	-10.8372
확	-10.8375
▁우익	-10.8376
경찰서	-10.8381
▁Mo	-10.8382
▁도시는	-10.8384
▁아니고	-10.8384
▁퍼져	-10.8384
▁반사	-10.8386
▁유인	-10.8388
▁주류	-10.839
▁교리	-10.839
port	-10.8391
▁간에	-10.8394
▁영광	-10.8397
시와	-10.8399
六	-10.8402
▁블	-10.8403
▁불리	-10.8403
명과	-10.8404
▁남쪽에	-10.8406
▁이명박	-10.841
▁공룡	-10.841
▁대만	-10.8411
▁거기에	-10.8411
▁바꾸	-10.8414
▁유입	-10.8416
▁않았던	-10.8416
운동을	-10.8417
▁코너	-10.8418
▁아트	-10.8418
▁예방	-10.8418
▁성과를	-10.8419
웨	-10.8421
▁아티스트	-10.8422
▁곳을	-10.8423
하였기	-10.8426
▁퀸	-10.8428
드의	-10.8429
▁당했다	-10.8431
▁처음에	-10.8432
▁믿음	-10.8433
▁거리를	-10.8436
국장	-10.8437
▁드러내	-10.8437
▁re	-10.8437
▁칼리지	-10.8438
▁흙	-10.8439
▁다음으로	-10.8439
▁대지	-10.844
화학	-10.8441
▁황후	-10.8442
▁계기가	-10.8445
▁집에서	-10.8446
TS	-10.8448
▁화합물	-10.845
▁이탈	-10.845
▁1909	-10.8453
독일	-10.8454
리스트	-10.8454
퀴	-10.8455
▁Con	-10.8457
▁걸려	-10.8458
▁옆	-10.8458
▁당해	-10.8458
▁선두	-10.8461
▁필요로	-10.8461
조를	-10.8461
▁La	-10.8461
▁수상자	-10.8463
▁랩	-10.8464
현재의	-10.8464
▁대학의	-10.8465
ica	-10.8465
▁음악가	-10.8467
▁반면에	-10.8468
▁킬	-10.8468
▁가쓰	-10.8473
▁구간이	-10.8474
▁때문이었다	-10.8474
陵	-10.8475
체는	-10.8476
體	-10.8476
유키	-10.8479
ber	-10.8481
▁원주민	-10.8483
▁차체	-10.8486
ina	-10.8487
테르	-10.8488
ve	-10.8489
부와	-10.849
▁하드웨어	-10.8493
▁사당	-10.8495
▁유키	-10.8498
▁세조	-10.8499
▁등장한	-10.8506
九	-10.8506
衛	-10.8506
사우루스	-10.8511
▁인생	-10.8512
▁마쓰다이라	-10.8515
AC	-10.8515
▁수반	-10.8519
▁당사자	-10.8519
▁동시	-10.8522
▁엘리	-10.8523
▁침해	-10.8525
▁못해	-10.8525
▁메탈	-10.8527
廣	-10.8528
비행	-10.8533
▁모험	-10.8534
▁고교	-10.8536
▁좌파	-10.8537
▁곱	-10.8541
해왔다	-10.8541
▁우리는	-10.8542
▁돔	-10.8548
민주	-10.8548
▁유산	-10.855
▁김종	-10.855
▁NHK	-10.8551
▁변화가	-10.8552
▁두려워	-10.8554
▁애국	-10.8558
왕이	-10.8558
▁IC	-10.8559
▁하다가	-10.856
▁목소리	-10.8561
▁도움이	-10.8564
▁시청	-10.8565
때문에	-10.8566
이면	-10.8566
▁계획이	-10.8566
겠다고	-10.8567
▁회담	-10.8569
а	-10.8574
대교	-10.8575
▁파티	-10.8576
▁란	-10.8577
▁권위	-10.8578
谷	-10.8581
▁Ch	-10.8583
▁돌아온	-10.8586
▁보이며	-10.8591
분교	-10.8592
년만에	-10.8592
동으로	-10.8593
▁유닛	-10.8594
▁래	-10.8596
ore	-10.8596
▁프라	-10.8597
▁민족주의	-10.8598
생활을	-10.86
▁독립운동	-10.8604
타임	-10.8605
▁공화당	-10.8606
▁브라질의	-10.8609
ris	-10.8612
노프	-10.8614
무늬	-10.8617
▁시계	-10.862
비스	-10.8621
▁빨리	-10.8625
▁복구	-10.8626
바시	-10.8626
닛	-10.8627
▁유고슬라비아	-10.8628
▁후쿠	-10.8629
사인	-10.863
▁얻기	-10.8631
▁아나운서	-10.8632
전이	-10.8633
業	-10.8638
▁이사회	-10.8643
하러	-10.8644
▁않았으며	-10.8644
아키	-10.8647
▁대서양	-10.8648
▁스타디움	-10.8649
▁불안	-10.8652
▁포유류	-10.8652
▁뿐이다	-10.8652
▁가담	-10.8653
▁Le	-10.8653
▁여신	-10.8654
▁중국어	-10.8656
목에	-10.8658
▁합동	-10.8658
주기	-10.8659
▁좌익	-10.8663
▁사우스	-10.8665
석은	-10.8666
▁관심	-10.8667
▁삼각형	-10.8669
▁약간의	-10.867
▁규모가	-10.8673
▁크레	-10.8676
ea	-10.8679
▁느	-10.868
▁공동으로	-10.868
구는	-10.8682
▁기병	-10.8682
석이	-10.8683
▁아사	-10.8684
▁51	-10.8685
달러	-10.8686
▁아들이	-10.8686
周	-10.8687
▁여동생	-10.8687
▁기념물	-10.8691
-7	-10.8691
▁교역	-10.8694
▁졸	-10.8697
▁산성	-10.8697
관은	-10.8698
▁열어	-10.8699
▁토머스	-10.8702
▁음모	-10.8703
▁동굴	-10.8703
‘	-10.8712
▁권한을	-10.8712
▁앨	-10.8714
▁카페	-10.8714
</	-10.8718
독립	-10.8719
프레	-10.8719
▁걸어	-10.8721
▁가공	-10.8721
갔고	-10.8722
▁내놓	-10.8726
▁증기	-10.8727
▁끈	-10.8727
품을	-10.8727
▁간섭	-10.8728
▁지름	-10.8729
타르	-10.8729
▁동아시아	-10.873
▁박쥐	-10.8732
▁활약하고	-10.874
▁출입	-10.874
▁포항	-10.8741
▁독재	-10.8741
▁추가되었다	-10.8742
▁지역에서는	-10.8742
▁노무현	-10.8745
경찰	-10.8747
▁서경	-10.8747
어족	-10.8747
되었다고	-10.875
▁추대	-10.8753
α	-10.8753
▁말하며	-10.8753
▁구리	-10.8755
▁우수한	-10.8758
▁늘어	-10.876
▁부동산	-10.876
建	-10.8763
오르	-10.8765
▁SF	-10.8765
공격	-10.8765
밤	-10.8766
▁플	-10.8768
vi	-10.877
▁입증	-10.877
▁대동	-10.8772
▁다양체	-10.8775
치고	-10.8775
▁스톤	-10.8775
▁최신	-10.8777
▁인구의	-10.8777
▁결과적으로	-10.8779
체로	-10.8781
▁중립	-10.8786
▁빚	-10.8787
▁동영상	-10.8787
▁태자	-10.8789
▁센트럴	-10.879
▁스타크래프트	-10.8791
▁주장이	-10.8793
殿	-10.8795
▁i	-10.8796
▁구체적으로	-10.88
▁아직도	-10.8801
▁노선이	-10.8801
▁존슨	-10.8803
▁서방	-10.8805
▁벌였다	-10.8807
▁시점	-10.8808
曹	-10.8808
▁유신	-10.881
▁세계적인	-10.8811
▁별자리	-10.8811
▁호남	-10.8812
▁케이블	-10.8815
뤼	-10.8816
▁다이묘	-10.8816
▁아리	-10.8817
▁스파이	-10.8817
ung	-10.8818
▁주와	-10.8819
▁이온	-10.8822
▁뽑	-10.8823
▁서독	-10.8824
안에	-10.8825
ll	-10.8827
▁가르	-10.8829
▁커피	-10.8832
▁점수	-10.8834
▁발효	-10.8837
▁구간은	-10.8837
▁건의	-10.8838
▁고지	-10.8839
론은	-10.8844
▁과거에	-10.8846
전기	-10.8848
살이	-10.885
진은	-10.885
작가	-10.885
▁지연	-10.885
▁1913	-10.8851
▁클	-10.8853
▁디즈니	-10.8853
▁동지	-10.8855
▁브리	-10.8855
피아	-10.8855
▁시를	-10.8858
▁제약	-10.886
▁물러나	-10.8861
▁때마다	-10.8863
▁샘	-10.8866
대한	-10.8867
▁꾸	-10.8867
관계를	-10.887
ー	-10.8872
▁만난	-10.8872
▁EP	-10.8874
▁약화	-10.8877
인간	-10.8879
▁물이	-10.888
▁호흡	-10.888
▁정통	-10.8881
▁하사	-10.8883
▁국민의	-10.8884
▁루트비히	-10.8885
보고	-10.8886
▁그랜드	-10.8887
▁방향을	-10.8888
▁합계	-10.8889
▁화폐	-10.889
▁판타지	-10.889
진이	-10.889
정의	-10.889
소스	-10.889
▁Ro	-10.8891
▁중앙에	-10.8891
▁시가	-10.8893
▁대리	-10.8893
주와	-10.8899
▁무선	-10.89
▁주자	-10.8901
▁보건	-10.8902
▁개업	-10.8903
ov	-10.8903
▁입대	-10.8904
▁영화를	-10.8906
▁치르	-10.8913
▁산악	-10.8914
▁독립운동가	-10.8914
▁나갔다	-10.8914
▁성종	-10.8915
▁기단	-10.8916
야구	-10.8917
▁약칭	-10.8918
▁대회는	-10.892
▁쪽으로	-10.892
▁무관	-10.8921
사이드	-10.8921
▁대사관	-10.8922
부르크	-10.8924
-17	-10.8924
평가	-10.8926
▁닌텐도	-10.8926
▁포맷	-10.8926
되던	-10.8927
▁오버	-10.8928
▁프랑크	-10.893
식의	-10.8931
생산	-10.8933
▁분화	-10.8934
▁돌아	-10.8934
▁시호는	-10.8934
景	-10.8935
▁이외에	-10.8937
▁있으면	-10.8943
▁간다	-10.8945
▁다니	-10.8947
▁비잔티움	-10.8949
▁더블	-10.8949
집합	-10.895
▁별도로	-10.8951
▁자료를	-10.8951
▁바라	-10.8951
▁클래스	-10.8956
▁1915	-10.8956
▁후기의	-10.8957
▁시청률	-10.8959
ka	-10.896
▁배제	-10.896
▁귀환	-10.8962
直	-10.8967
▁되었으나	-10.8968
▁생각을	-10.8971
▁내가	-10.8975
美	-10.8976
▁필름	-10.8977
合	-10.8977
▁전임	-10.8979
-16	-10.8979
AL	-10.8982
▁65	-10.8986
▁내용의	-10.8986
▁여인	-10.8987
득점	-10.8989
즐	-10.8991
▁개칭	-10.8994
▁신칸센	-10.8995
▁패턴	-10.8996
▁극복	-10.8998
▁다큐멘터리	-10.8999
▁벗	-10.9
▁데이터베이스	-10.9
▁정부를	-10.9001
▁예루살렘	-10.9001
▁기록하고	-10.901
▁공식적인	-10.9011
▁도심	-10.9013
▁간단한	-10.9015
▁랭킹	-10.9016
▁크기의	-10.9017
▁오디션	-10.9018
▁무용	-10.9018
▁Love	-10.9018
▁1895	-10.9021
▁좌석	-10.9022
▁나선	-10.9022
▁엘리자베스	-10.9023
▁대대	-10.9023
▁남긴	-10.9023
첸	-10.9024
▁쇼군	-10.9024
▁내륙	-10.9025
서비스	-10.9026
▁서인	-10.9026
▁성립한다	-10.9027
혔다	-10.9027
▁평생	-10.9028
▁불리기도	-10.9029
▁크림	-10.9029
▁배급	-10.9031
▁시드니	-10.9031
▁코어	-10.9032
▁잃고	-10.9032
▁육성	-10.9032
▁관심이	-10.9032
▁못했고	-10.9035
▁창원	-10.9036
▁작위	-10.9036
BA	-10.9038
▁활동에	-10.9039
▁다룬	-10.9039
▁이끌	-10.9041
▁기름	-10.9042
▁남아있다	-10.9043
나카	-10.9044
▁찾는	-10.9045
▁An	-10.9045
▁작전을	-10.9045
미르	-10.9045
▁아울러	-10.9046
▁은퇴한	-10.9046
up	-10.9047
▁심한	-10.9047
▁요금	-10.9047
홈런	-10.9048
▁(1	-10.9048
▁관객	-10.9049
▁심리	-10.9051
▁말라	-10.9053
하라고	-10.9055
-18	-10.9055
▁흥행	-10.9057
祖	-10.9063
源	-10.9064
▁적절한	-10.9065
▁일체	-10.9066
▁향년	-10.9066
▁설이	-10.9075
▁시대에는	-10.9076
AN	-10.9076
▁싶다	-10.9078
見	-10.9078
▁지방에서	-10.9082
▁고베	-10.9087
▁동맹을	-10.9089
톡	-10.9092
▁인간이	-10.9092
그리	-10.9094
▁업데이트	-10.9096
者	-10.9097
▁낳았다	-10.9099
▁동구	-10.9101
▁츠	-10.9102
▁공전	-10.9103
▁국가가	-10.9103
▁눈을	-10.9104
▁최근에	-10.9105
▁백성들	-10.9108
▁착수	-10.9108
▁졸업하였다	-10.9111
▁모양을	-10.9111
▁당선되었다	-10.9112
▁목숨을	-10.9112
▁관하여	-10.9113
▁참가하여	-10.9114
▁합쳐	-10.9117
▁계수	-10.9119
基	-10.912
▁오리지널	-10.912
▁태도	-10.9121
▁독자적인	-10.9122
▁Th	-10.9124
▁문재인	-10.9124
▁유지하고	-10.9125
▁가미	-10.9126
▁군사적	-10.9127
▁제목	-10.9127
버리	-10.913
▁중계	-10.9133
SL	-10.9135
트와	-10.9136
▁표본	-10.9136
▁버리고	-10.9137
▁도시를	-10.9137
▁안쪽	-10.9138
宋	-10.9138
▁MVP	-10.9138
▁결심	-10.9139
▁멜	-10.9139
▁언어로	-10.914
▁옹호	-10.9141
시민	-10.9143
ade	-10.9147
▁활약하였다	-10.9148
Al	-10.9149
▁체육	-10.9151
궤	-10.9152
▁사용하기	-10.9153
▁문제점	-10.9154
아버지	-10.9157
ae	-10.9158
▁일요일	-10.9158
역에서	-10.9159
▁《》	-10.9161
▁파라	-10.9161
만은	-10.9161
▁한국에서는	-10.9162
MS	-10.9169
▁행복	-10.9169
국을	-10.917
▁발생했다	-10.9175
▁애플리케이션	-10.9176
▁가도	-10.918
▁교차로	-10.918
▁자전거	-10.918
킷	-10.9181
▁경계를	-10.9183
-10	-10.9184
▁문법	-10.9185
立	-10.9185
시켰고	-10.9185
▁대항	-10.9187
▁가능성을	-10.9189
▁들어간	-10.9189
섰	-10.9189
▁러브	-10.919
▁몰락	-10.9191
▁경북	-10.9193
▁선호	-10.9193
▁스테이지	-10.9195
▁찾아가	-10.9196
▁모집	-10.9197
▁효소	-10.9198
▁스펙트럼	-10.9199
▁세계를	-10.92
▁대령	-10.92
선언	-10.9202
▁캠프	-10.9202
-15	-10.9203
AP	-10.9205
▁정의할	-10.9207
ue	-10.9208
▁측은	-10.9208
분을	-10.921
▁압박	-10.9211
▁결승	-10.9213
▁자리에서	-10.9217
▁요구하는	-10.9217
행을	-10.9217
▁한계	-10.9218
▁54	-10.9218
▁등도	-10.9219
▁저작	-10.9219
▁크로스	-10.922
英	-10.9222
▁경비	-10.9223
▁여기	-10.9224
▁시집	-10.9224
ron	-10.9226
주가	-10.9226
▁후계자	-10.9228
▁특성을	-10.9229
정은	-10.9232
▁가득	-10.9233
▁번뇌	-10.9238
▁Ar	-10.924
▁많고	-10.924
▁왕립	-10.9241
왔고	-10.9241
bi	-10.9242
컴	-10.9244
▁베이스볼	-10.9247
▁복지	-10.9247
▁얼음	-10.9248
▁이야기가	-10.9249
감이	-10.9251
녹	-10.9251
▁혜성	-10.9252
we	-10.9254
▁것이고	-10.9254
▁리듬	-10.9258
이었는데	-10.926
星	-10.926
▁월드컵에서	-10.9264
▁색상	-10.9264
▁강릉	-10.9265
▁위치하며	-10.9268
▁놀이	-10.9271
▁홀로	-10.9272
동과	-10.9272
▁미국에	-10.9272
▁분노	-10.9274
마저	-10.9276
조약	-10.9276
▁바꾸었다	-10.9277
▁김동	-10.9278
▁샌프란시스코	-10.9279
▁묶	-10.9281
▁초래	-10.9281
▁특급	-10.9285
▁앨런	-10.9285
▁포크	-10.9285
號	-10.9289
▁열차는	-10.9289
니카	-10.9291
▁준공	-10.9291
▁수요	-10.9291
▁뤼	-10.9294
▁형성된	-10.9297
꾸	-10.9299
▁흐	-10.9302
朝	-10.9302
교수	-10.9307
FC	-10.9308
▁회원국	-10.9309
▁입구	-10.9309
▁관련하여	-10.9309
량의	-10.9311
▁입문	-10.9312
▁그럼에도	-10.9312
▁항일	-10.9314
▁서적	-10.9318
▁펄	-10.9318
▁국립공원	-10.9319
▁긴급	-10.932
▁가야	-10.9323
▁생각했다	-10.9323
-8	-10.9324
▁효과가	-10.9328
▁디젤	-10.9329
▁전통적으로	-10.9329
▁아이들	-10.933
▁미사	-10.9331
▁존재를	-10.9334
융	-10.9336
▁인증	-10.9336
宣	-10.9336
▁데리고	-10.9336
안전	-10.9338
파이	-10.934
▁석방	-10.934
랍	-10.9343
700	-10.9344
▁영화로	-10.9345
▁암컷	-10.9346
▁신임	-10.9347
▁국민당	-10.9347
▁인사들	-10.9348
▁선생	-10.9348
▁동전	-10.9349
▁생기	-10.9349
▁납	-10.9355
▁활동한	-10.9357
▁사진을	-10.9359
▁멤버로	-10.9361
ake	-10.9363
▁자가	-10.9364
▁미야	-10.9364
眞	-10.9365
▁퇴각	-10.9366
▁스페셜	-10.9368
년대부터	-10.9369
족이	-10.9371
▁본선의	-10.9375
아나	-10.9379
▁하원	-10.9379
▁운반	-10.9381
▁통칭	-10.9386
즉	-10.9389
▁나라를	-10.9389
▁49	-10.939
▁앞면	-10.9391
▁근거로	-10.9391
▁인텔	-10.9392
▁전류	-10.9395
▁1916	-10.9395
▁싱글이다	-10.9397
▁마스터	-10.94
▁오염	-10.94
▁배정	-10.9401
花	-10.9403
▁앨범은	-10.9405
▁권고	-10.9406
高等學校	-10.9408
하기에	-10.9409
▁52	-10.941
럽	-10.9411
ME	-10.9411
▁지목	-10.9412
우치	-10.9414
▁목록은	-10.9415
▁데뷔전을	-10.9415
▁수록곡	-10.9416
▁빛을	-10.9418
so	-10.9419
▁죽어	-10.9419
▁발견했다	-10.9419
▁수컷	-10.942
▁현존하는	-10.9422
츠키	-10.9422
amp	-10.9423
나리	-10.9426
▁인물이다	-10.9426
▁되었다고	-10.9426
▁료	-10.9427
▁히데요시	-10.9427
▁멤버들	-10.9427
▁가지게	-10.9429
▁디자이너	-10.9431
▁힘이	-10.9432
▁말하고	-10.9436
▁성벽	-10.9437
▁무력	-10.9437
▁끝났다	-10.9438
▁가져	-10.9438
▁일본에서는	-10.9439
▁중이던	-10.9441
▁첫번째	-10.9441
잘	-10.9443
▁애니	-10.9446
▁셋	-10.9451
sc	-10.9454
▁입지	-10.9455
쳤다	-10.9456
▁성주	-10.9456
토르	-10.9456
▁부처	-10.9462
-6	-10.9463
▁선교	-10.9464
▁인디	-10.9464
▁안드로이드	-10.9465
▁사사	-10.9465
▁편곡	-10.9466
▁일본은	-10.947
▁현대의	-10.9471
▁급행	-10.9474
▁담당하는	-10.9475
▁태어났으며	-10.9476
▁조기	-10.9476
지사	-10.9477
▁수비수	-10.9477
화로	-10.9477
AS	-10.9479
▁멀티	-10.9479
▁확인할	-10.9479
▁광주광역시	-10.948
▁상대방	-10.9481
▁메시지	-10.9484
▁Al	-10.9487
▁관점에서	-10.9488
자이다	-10.9488
▁멀	-10.9492
▁사무실은	-10.9492
▁활동이	-10.9495
▁이르고	-10.9495
대한민국	-10.9496
▁한쪽	-10.9498
▁찾	-10.95
▁능력이	-10.9502
▁찾을	-10.9504
▁귀족들	-10.9505
▁꺾고	-10.9509
)」	-10.9509
주의적	-10.9511
▁양도	-10.9513
국사	-10.9513
▁스탈린	-10.9514
▁("	-10.9515
사람	-10.9515
▁보스	-10.9515
▁관직	-10.9516
▁기온은	-10.9517
▁마산	-10.9517
萬	-10.9518
▁결정했다	-10.9518
▁인터페이스	-10.9519
hPa	-10.9522
▁정벌	-10.9523
▁번식	-10.9523
학의	-10.9524
▁가질	-10.9526
ess	-10.9527
▁성공적으로	-10.9527
▁1500	-10.953
ley	-10.9534
▁락	-10.9534
이었기	-10.9535
▁문화를	-10.9535
▁가즈	-10.9536
▁그동안	-10.954
▁지배를	-10.9543
▁필드	-10.9544
▁스카	-10.9544
ite	-10.9545
▁떨어지	-10.9548
▁적색	-10.9551
▁보잉	-10.9552
DA	-10.9552
▁프로세스	-10.9553
복을	-10.9554
▁무료	-10.9555
▁가와	-10.9556
조정	-10.9557
▁다루고	-10.9559
▁할당	-10.956
▁마친	-10.9561
학부	-10.9562
▁옮기	-10.9563
▁분야의	-10.9564
수와	-10.9564
▁말은	-10.9566
▁회의에서	-10.9566
▁듀	-10.9568
▁커뮤니티	-10.9569
▁목조	-10.9571
ah	-10.9573
▁사료	-10.9573
탱	-10.9573
▁물건	-10.9574
▁국가에서	-10.9574
화와	-10.9576
村	-10.9577
보드	-10.9577
▁점은	-10.9578
▁FM	-10.9579
▁끌어	-10.9583
▁면역	-10.9586
병을	-10.9586
▁판매량	-10.9587
▁얼마나	-10.9589
▁DJ	-10.9589
▁큐	-10.9589
像	-10.9591
▁국군	-10.9592
▁꾀	-10.9594
▁혁신	-10.9595
▁프랑스와	-10.9596
女	-10.9596
르는	-10.9597
▁계획은	-10.9598
▁야기	-10.9599
ick	-10.9601
▁자세	-10.9601
▁소속되어	-10.9602
자동차	-10.9604
formula	-10.9604
▁교전	-10.9609
▁과일	-10.961
▁위기에	-10.961
_10	-10.9612
모델	-10.9612
▁소니	-10.9613
부에서	-10.9614
▁포도주	-10.962
▁제휴	-10.9622
역이	-10.9626
▁성서	-10.9626
▁수익	-10.9626
▁이익을	-10.9626
▁※	-10.9627
▁아웃	-10.9627
씨가	-10.9629
▁오는	-10.9629
▁운행하는	-10.963
▁값을	-10.9631
▁무사	-10.9632
▁정신적	-10.9634
▁타이틀곡	-10.9634
▁상태이다	-10.9635
福	-10.9635
▁드래프트	-10.9638
▁56	-10.9638
리그의	-10.9641
▁서쪽에	-10.9643
▁석탄	-10.9648
▁나라에서	-10.9648
〉(	-10.9649
▁싸우	-10.9649
▁라운드	-10.9652
론의	-10.9652
▁민간인	-10.9654
파크	-10.9654
▁여덟	-10.9655
아노	-10.9655
에르	-10.9656
▁AC	-10.9657
▁발생하였다	-10.9657
RE	-10.9658
▁협의	-10.9658
롭	-10.9659
▁받기	-10.9662
▁편지를	-10.9663
▁자바	-10.9664
렸고	-10.9665
PS	-10.9665
베르크	-10.9666
▁가끔	-10.9667
▁선거에	-10.9669
▁지역이다	-10.9669
▁목적은	-10.9671
▁대왕	-10.9673
▁아베	-10.9674
制	-10.9675
▁표지	-10.9679
음력	-10.9679
한다면	-10.9679
▁작품에	-10.968
▁해임	-10.9683
的	-10.9684
국으로	-10.9685
ee	-10.9686
▁인물들	-10.9686
세기의	-10.9687
▁대회를	-10.9688
▁병사들	-10.9688
영은	-10.9688
▁학부	-10.9689
▁라틴	-10.9691
랴	-10.9692
▁제목으로	-10.9692
▁미나미	-10.9692
▁칼리	-10.9693
▁의정부	-10.9694
▁덧붙여	-10.9694
▁진동	-10.9695
로서는	-10.9695
▁엔진을	-10.9698
▁서서히	-10.97
다르	-10.9704
▁튀	-10.9707
▁2020	-10.971
▁현급	-10.9713
즈의	-10.9718
있으며	-10.9718
野	-10.9719
IA	-10.9721
▁이사장	-10.9721
▁의석	-10.9721
▁맞게	-10.9722
동을	-10.9722
덩	-10.9722
▁각국	-10.9723
셋	-10.9723
▁남겨	-10.9724
▁말할	-10.9725
SI	-10.9725
▁대주교	-10.9726
▁주어졌다	-10.9728
▁철학자	-10.973
▁주말	-10.973
▁연주자	-10.9731
▁자유를	-10.9736
더라도	-10.9736
▁Tr	-10.9738
▁역사적으로	-10.974
▁앉	-10.974
마쓰	-10.9741
▁기록에	-10.9742
路	-10.9743
죠	-10.9744
▁발전에	-10.9745
che	-10.9745
▁것인지	-10.9747
(5	-10.9748
▁개막	-10.9748
自	-10.9748
▁테오	-10.975
아시아	-10.9753
회에서	-10.9758
▁보여주고	-10.9761
▁베타	-10.9762
▁광역	-10.9763
계열	-10.9763
▁아서	-10.9765
겼다	-10.9765
▁막을	-10.9765
▁좋아하는	-10.9765
▁주제로	-10.9766
▁국토	-10.9767
내는	-10.9767
▁마이크로	-10.9768
▁성씨	-10.9768
▁조명	-10.9769
▁링	-10.9771
군사	-10.9771
▁이끌어	-10.9774
▁충분한	-10.9775
▁두산	-10.9776
ight	-10.9777
▁일로	-10.9777
IN	-10.9777
크로	-10.9779
▁국정	-10.9779
▁대로	-10.9781
고속	-10.9783
*	-10.9784
ES	-10.9785
나이	-10.9785
▁차남	-10.9787
▁겸임	-10.9788
▁김영삼	-10.979
▁곡으로	-10.979
▁연구하는	-10.9792
자키	-10.9792
mer	-10.9792
▁원작으로	-10.9793
左	-10.9793
▁주파수	-10.9794
금융	-10.9795
적이	-10.9796
▁덴마크의	-10.9796
▁공략	-10.9797
▁질환	-10.9797
▁Se	-10.98
▁개발을	-10.9802
늘	-10.9802
▁연설	-10.9805
하니	-10.9806
겠다는	-10.9807
▁실시된	-10.9808
康	-10.9808
이지	-10.9815
준다	-10.9819
니다	-10.9819
▁학교를	-10.982
▁이세	-10.9821
▁모순	-10.9821
▁자유주의	-10.9824
브레	-10.9824
하였	-10.9829
형태	-10.9829
貞	-10.9833
▁페리	-10.9836
▁캄	-10.9836
▁혼자	-10.9837
버렸다	-10.9838
▁않도록	-10.9839
▁원조	-10.984
무역	-10.9841
▁가능하며	-10.9843
根	-10.9843
적이다	-10.9844
▁현상이	-10.9846
다니	-10.985
▁프랑스군	-10.9853
(2002	-10.9855
▁발탁	-10.9857
ame	-10.9858
▁거둔	-10.9859
▁천연	-10.986
▁쳐	-10.986
스포츠	-10.9861
▁심사	-10.9861
▁한화	-10.9861
▁사무	-10.9861
▁냉	-10.9863
▁700	-10.9867
수사	-10.9867
▁독일에서	-10.9868
▁없으나	-10.9869
보는	-10.9873
▁SC	-10.9873
▁스마트폰	-10.9873
▁코무네	-10.9874
▁원자로	-10.9875
황후	-10.9876
▁굽	-10.988
▁예외	-10.9882
▁치렀다	-10.9884
▁전진	-10.9888
이면서	-10.9888
▁천문학	-10.989
▁도와	-10.9891
▁특수한	-10.9891
▁시간대	-10.9892
▁혈액	-10.9894
자들	-10.9897
▁방영되었다	-10.9897
▁브로	-10.9898
▁권한	-10.9898
▁성공회	-10.9898
▁하버드	-10.99
BC	-10.9902
자들에게	-10.9903
경영	-10.9903
▁CPU	-10.9905
▁메가	-10.9906
▁되찾	-10.9908
유럽	-10.991
▁당신	-10.991
▁본격적인	-10.991
▁지어진	-10.991
▁도요	-10.9912
▁측면에서	-10.9912
점으로	-10.9913
▁지역과	-10.9916
▁얻는	-10.9918
▁분지	-10.9919
▁받기도	-10.9919
▁누구	-10.9919
▁추격	-10.992
▁조약을	-10.9921
▁일찍이	-10.9921
▁동독	-10.9924
▁성질을	-10.9924
▁on	-10.9927
▁비즈니스	-10.9927
동이	-10.9929
▁산타	-10.9933
▁훈련을	-10.9934
맛	-10.9936
▁인물이	-10.9938
▁계열의	-10.9939
음이	-10.994
▁석사	-10.9942
Le	-10.9944
▁파동	-10.9945
▁돌아갔다	-10.9945
▁음반은	-10.9948
▁나이트	-10.9949
▁연애	-10.995
▁지휘자	-10.9951
▁250	-10.9954
▁자유롭게	-10.9955
회가	-10.9956
▁중요하다	-10.9956
▁그것	-10.9957
▁포함해	-10.9957
뷰	-10.9958
▁경험을	-10.9958
있고	-10.9959
▁개념은	-10.9959
▁훌륭한	-10.996
▁여기에서	-10.996
▁청와대	-10.996
▁영어로	-10.996
▁그곳	-10.9961
타는	-10.9961
▁실패했다	-10.9961
이론	-10.9962
위가	-10.9963
▁찾기	-10.9963
▁전세계	-10.9963
泰	-10.9964
▁전두환	-10.9964
▁리투아니아	-10.9964
▁고조	-10.9967
▁출입구	-10.9968
류의	-10.9969
▁유언	-10.9969
▁기동	-10.997
▁웃	-10.9971
산은	-10.9974
찌	-10.9975
▁시작해	-10.9976
미디어	-10.9976
행동	-10.9976
▁경력을	-10.998
q	-10.998
▁역과	-10.9981
호에	-10.9982
해지고	-10.9984
▁통로	-10.9987
▁아니며	-10.9988
▁브라이언	-10.9989
▁싶어	-10.9991
▁글씨	-10.9991
▁이수	-10.9993
▁출구	-10.9993
▁렌즈	-10.9993
▁이토	-10.9994
▁프로토콜	-10.9994
령이	-10.9999
▁사령부	-10.9999
und	-11.0002
고종	-11.0002
투쟁	-11.0003
old	-11.0004
%	-11.0007
▁제도의	-11.001
(2011	-11.001
▁부패	-11.0012
▁연고로	-11.0015
▁김용	-11.0018
▁조류	-11.0019
▁외계	-11.0021
▁사용해	-11.0021
▁뒤인	-11.0023
쿄	-11.0025
▁동쪽에	-11.0027
▁구체적인	-11.0028
▁울산광역시	-11.003
▁빼	-11.0031
▁노비	-11.0031
▁외교관	-11.0032
▁발견되는	-11.0034
外	-11.0035
▁전례	-11.0038
議	-11.0039
▁경유	-11.0039
레나	-11.004
작용	-11.0041
▁따르는	-11.0042
▁대안	-11.0042
▁않았기	-11.0043
▁당한	-11.0043
▁호칭	-11.0044
▁친일인명사전	-11.0045
▁부통령	-11.0045
▁연령	-11.0046
▁그중	-11.0047
傳	-11.005
▁지니	-11.0051
▁적을	-11.0051
따	-11.0054
▁뱀	-11.0056
▁영화제	-11.0056
▁창건	-11.0057
해진다	-11.0057
파가	-11.0057
▁피렌체	-11.0061
▁디비전	-11.0061
▁끝이	-11.0061
ix	-11.0062
▁게재	-11.0062
▁막대한	-11.0063
▁직장	-11.0065
▁자격을	-11.0066
▁코리아	-11.0066
그라	-11.0067
편의	-11.0068
화되어	-11.0069
받는	-11.0069
▁맡았으며	-11.0071
▁소속사	-11.0074
았던	-11.0076
▁또다시	-11.0076
▁화려한	-11.0077
▁의병	-11.0078
▁금성	-11.0079
▁섬유	-11.008
전은	-11.0081
▁싫어	-11.0082
▁승부	-11.0084
▁건너가	-11.0084
▁예능	-11.0086
작품	-11.0087
▁컨	-11.0088
스에서	-11.0089
치기	-11.009
▁대신에	-11.0091
▁조조	-11.0091
▁생명체	-11.0092
너스	-11.0094
선조	-11.0096
▁김태	-11.0097
▁성직자	-11.0097
▁군대가	-11.0099
▁이승	-11.0099
▁길이가	-11.01
빨	-11.0101
▁가능하게	-11.0104
▁SM	-11.0104
산면	-11.0105
▁사면	-11.0105
▁발견한	-11.0106
典	-11.0106
▁학위	-11.0106
▁머리를	-11.0107
류를	-11.0107
아과	-11.0108
우가	-11.0109
▁석조	-11.011
▁있음	-11.0111
▁간부	-11.0111
▁분포한다	-11.0113
됐으며	-11.0113
ich	-11.0113
군에서	-11.0114
▁동북	-11.0116
▁정자	-11.0118
낸다	-11.0121
났다	-11.0126
▁에스토니아	-11.0127
▁수천	-11.0129
▁이었다	-11.0131
동의	-11.0135
▁프랑스에서	-11.0136
수도	-11.0137
治	-11.0137
쳤고	-11.0144
▁정차	-11.0144
즈는	-11.0144
▁실업	-11.0145
▁중심이	-11.0145
▁물리적	-11.0146
▁발레	-11.0149
▁젖	-11.0151
▁두루	-11.0151
ier	-11.0152
▁짓	-11.0154
▁180	-11.0158
▁우주선	-11.0158
▁향을	-11.0159
스톤	-11.0159
▁근접	-11.016
ack	-11.0161
▁삭	-11.0162
▁불가	-11.0163
▁출판사	-11.0163
▁!	-11.0165
▁일원으로	-11.0168
▁오케스트라	-11.0168
▁어두운	-11.0168
▁시게	-11.0171
▁체제를	-11.0173
▁무슬림	-11.0174
불교	-11.0175
▁서원	-11.0175
▁잘못된	-11.0176
音	-11.0179
▁내는	-11.0179
SA	-11.0179
▁손실	-11.018
▁움직임	-11.0181
▁공로	-11.0183
하려면	-11.0184
▁상관	-11.0185
혔	-11.0186
▁이내	-11.0187
▁인원	-11.0188
令	-11.0189
▁원나라	-11.0193
▁살던	-11.0193
▁급제	-11.0193
▁빌헬름	-11.0194
▁구장	-11.0195
▁부흥	-11.0195
▁엠	-11.0197
▁리메이크	-11.0199
▁뒤에는	-11.0199
觀	-11.0199
코드	-11.02
▁방식의	-11.0202
▁소재로	-11.0202
▁추모	-11.0203
承	-11.0205
▁계단	-11.0205
▁목포	-11.0205
산맥	-11.0205
▁줄여서	-11.0207
경을	-11.0208
으므로	-11.0211
▁이후부터	-11.0212
끼	-11.0212
▁펠	-11.0213
▁마찰	-11.0214
▁낱말	-11.0215
▁아이템	-11.0216
▁삼고	-11.0216
보다도	-11.0216
▁승리로	-11.0216
▁습	-11.0217
▁빠진	-11.0217
▁여론	-11.0218
▁기술이	-11.0219
상에서	-11.0224
밭	-11.0225
▁사용자가	-11.0226
▁해설	-11.0227
ata	-11.0227
別	-11.0231
▁스파르타	-11.0231
▁거슬러	-11.0232
▁작고	-11.0234
▁수록된	-11.0236
▁상의	-11.0237
▁임명되어	-11.024
▁밤에	-11.0241
▁사가	-11.0243
론적	-11.0244
▁쌓아	-11.0245
졌지만	-11.0245
▁검증	-11.0246
▁점프	-11.0246
▁빠지	-11.0246
ach	-11.0248
▁유교	-11.0249
▁맡게	-11.0249
▁독일군	-11.0249
▁성모	-11.025
mi	-11.025
▁양주	-11.0262
폴리스	-11.0263
종합	-11.0263
판은	-11.0266
빠	-11.0267
▁풋볼	-11.0267
정이	-11.0267
어스	-11.0267
▁개발된	-11.0267
▁했다고	-11.0268
▁춤	-11.027
▁신자	-11.0271
▁특유의	-11.0272
▁짓고	-11.0275
▁세워졌다	-11.0275
▁싸	-11.0275
MC	-11.0275
▁선수이자	-11.0277
▁토대로	-11.0278
▁시로	-11.0278
▁Sh	-11.028
▁상인	-11.0281
▁결혼을	-11.0283
신학	-11.0283
▁시작하는	-11.0285
짜	-11.0286
▁혐의	-11.0288
▁서브	-11.0289
0%	-11.0289
▁기타리스트	-11.0289
▁까	-11.0289
▁보한다	-11.029
▁옹	-11.029
밴드	-11.0293
▁베네수엘라	-11.0293
주간	-11.0294
▁미만	-11.0294
▁법학	-11.0294
머스	-11.0296
▁수업	-11.0296
▁파운드	-11.0297
▁사용하며	-11.0302
▁균	-11.0304
▁구로	-11.0304
▁복제	-11.0304
▁사무소	-11.0305
▁세로	-11.0306
▁관습	-11.0308
▁형태가	-11.0308
壽	-11.0309
▁53	-11.0313
▁부수	-11.0314
▁늘어나	-11.0314
어야	-11.0315
▁역이	-11.0315
산군	-11.0315
▁람	-11.0319
▁유일	-11.032
반도	-11.0321
▁춘	-11.0322
▁밖의	-11.0327
▁따위	-11.0328
▁결과는	-11.033
▁무대에	-11.033
▁생각된다	-11.033
▁노스	-11.0331
▁왕위를	-11.0332
cc	-11.0333
lu	-11.0333
파는	-11.0333
타니	-11.0334
▁부르며	-11.0336
사관	-11.0336
▁뮤	-11.0339
▁지표	-11.0339
원숭이	-11.0341
▁역임	-11.0344
작업	-11.0346
짝	-11.0347
▁포수	-11.0347
▁군대는	-11.0348
▁고통	-11.0349
▁감독이다	-11.0349
▁이처럼	-11.0352
명에	-11.0352
히코	-11.0352
됐고	-11.0353
▁World	-11.0353
▁맞추어	-11.0356
▁주립	-11.0356
▁목적을	-11.0357
▁일족	-11.0358
포를	-11.0366
협정	-11.0366
▁주에서	-11.0366
니시	-11.0366
신을	-11.0368
ear	-11.0369
▁시작했으며	-11.0369
▁에드	-11.0369
레이션	-11.0369
▁국적	-11.037
▁사고로	-11.037
법인	-11.0371
▁렌	-11.0371
스에	-11.0373
▁묻	-11.0374
▁MC	-11.0374
▁트랜스	-11.0381
▁자기장	-11.0382
범죄	-11.0383
웠다	-11.0385
▁자산	-11.0385
▁중추원	-11.0386
▁생겼다	-11.0386
▁출시된	-11.0387
▁규격	-11.0389
▁균형	-11.039
▁미스	-11.039
ium	-11.0391
졌는데	-11.0392
▁각기	-11.0392
▁이것	-11.0394
▁몰아	-11.0395
▁떠난	-11.0395
미술	-11.0396
▁그러자	-11.0397
▁제국이	-11.0398
臺	-11.0398
룰	-11.0398
▁때때로	-11.0399
Ch	-11.0399
▁천안	-11.04
▁요소를	-11.0402
테이	-11.0402
▁대책	-11.0402
▁속도를	-11.0402
▁와중에	-11.0403
MI	-11.0403
▁언어를	-11.0403
▁한동안	-11.0404
원에	-11.0406
▁목격	-11.0409
開	-11.0409
▁훼손	-11.0409
짜리	-11.041
▁인터	-11.0411
▁하느님	-11.0412
자에	-11.0413
▁뻗어	-11.0414
▁To	-11.0414
▁중기의	-11.0415
▁파트너	-11.0416
▁끝나고	-11.0417
▁펼쳐	-11.0419
▁사물	-11.0421
경기에서	-11.0423
玉	-11.0425
吳	-11.0425
하루	-11.0427
con	-11.043
화는	-11.0431
▁서울에서	-11.0432
점은	-11.0432
▁미치는	-11.0434
▁파르	-11.0436
으니	-11.0438
구로	-11.0439
▁시스템은	-11.0439
▁운동이	-11.0441
▁민주화	-11.0441
ler	-11.0444
미가	-11.0445
▁중시	-11.0445
▁5000	-11.0445
▁후보에	-11.0446
▁보스니아	-11.0447
▁안양	-11.0452
당을	-11.0455
노리	-11.0457
패를	-11.0457
▁리버풀	-11.0457
▁합작	-11.0457
▁규정하고	-11.0458
ga	-11.0459
▁장안	-11.0459
▁생기는	-11.0463
An	-11.0465
▁여단	-11.0465
DS	-11.0466
▁교차	-11.0466
지면	-11.0467
노동	-11.047
▁궁정	-11.0472
▁기상청	-11.0472
▁전제	-11.0472
▁착륙	-11.0476
태후	-11.0476
ana	-11.0477
▁전부터	-11.0478
노부	-11.0478
▁해주	-11.0478
▁아들을	-11.0478
▁전투에	-11.0481
조로	-11.0481
함대	-11.0482
▁미드필더	-11.0483
물의	-11.0483
寶	-11.0483
奉	-11.0483
▁프랑스는	-11.0485
▁화살	-11.0486
▁출전했다	-11.0487
▁원래의	-11.0488
▁필라델피아	-11.0489
▁전투가	-11.049
역과	-11.049
▁알려지지	-11.0491
▁약한	-11.0491
▁아니면	-11.0493
보살	-11.0494
▁바꾸어	-11.0494
▁초창기	-11.0494
▁당대	-11.0497
臣	-11.0498
▁평행	-11.0498
리크	-11.05
둘	-11.0502
듯이	-11.0503
▁My	-11.0504
▁도메인	-11.0505
실로	-11.0506
▁의견이	-11.051
▁털이	-11.0512
▁프로그램은	-11.0512
보를	-11.0514
▁문화의	-11.0515
▁건물이	-11.0517
▁공채	-11.0518
플레이	-11.052
▁조국	-11.0521
▁충족	-11.0521
(4	-11.0523
▁지금도	-11.0525
▁강연	-11.0526
SC	-11.0528
▁3000	-11.0528
▁Ex	-11.0528
▁땅에	-11.053
▁항공모함	-11.0532
▁Pro	-11.0532
▁밴	-11.0532
▁써서	-11.0533
▁정도가	-11.0535
▁모델이다	-11.0536
▁결정을	-11.054
▁봉사	-11.0545
▁공자	-11.0546
▁고가	-11.0546
▁내부에	-11.055
▁사이드	-11.055
▁경선	-11.0552
▁융합	-11.0552
사항	-11.0555
나스	-11.0555
▁형법	-11.0556
▁설립하였다	-11.0558
應	-11.0558
라디오	-11.0559
펀	-11.0561
단위	-11.0561
퍼스	-11.0562
▁분야에	-11.0563
▁연구가	-11.0563
ng	-11.0565
아리	-11.0566
he	-11.0567
▁군부	-11.0568
큰	-11.0568
늄	-11.0569
▁소금	-11.057
▁팩	-11.057
▁방식은	-11.057
스파	-11.0571
▁서식한다	-11.0573
▁말한	-11.0573
▁유대	-11.0574
▁주지사	-11.0575
▁언제나	-11.0575
▁미술관	-11.0576
사무소	-11.0576
▁하나를	-11.0577
▁탕	-11.0578
딸	-11.0579
▁이슬람교	-11.0579
여객	-11.0584
ON	-11.0585
▁알레	-11.0585
▁부른	-11.0585
벌레	-11.0585
▁출전해	-11.0589
▁스페인어	-11.059
▁역임한	-11.059
시까지	-11.059
利	-11.059
▁황해도	-11.0592
▁내부의	-11.0595
▁섭정	-11.0597
▁진출하였다	-11.0597
▁도호쿠	-11.0598
▁죽을	-11.0601
▁침몰	-11.0602
▁제작되었다	-11.0605
▁근처의	-11.0605
▁사신	-11.0607
科	-11.0608
▁시점에서	-11.0608
▁지냈으며	-11.0608
▁관통	-11.061
族	-11.0612
▁제작자	-11.0612
현상	-11.0614
▁Bo	-11.0614
▁속도로	-11.0615
▁텐	-11.0618
▁진군	-11.0619
효과	-11.0619
대전	-11.0621
당이	-11.0621
동은	-11.0622
파리	-11.0624
▁형식을	-11.0625
▁명예의	-11.0627
春	-11.0628
▁동남아시아	-11.0628
▁바이올린	-11.0628
▁피트	-11.063
교를	-11.0635
▁본인	-11.0636
▁Pa	-11.0637
사고	-11.064
▁관계로	-11.0641
▁트럭	-11.0643
순위	-11.0644
▁라트비아	-11.0645
▁협약	-11.0646
▁초상화	-11.0646
▁기재	-11.0647
▁아기	-11.0647
▁죽이고	-11.0648
▁전투는	-11.0648
▁정확하게	-11.0649
▁당국	-11.0652
▁내내	-11.0653
▁가구	-11.0655
▁히라	-11.0655
헨	-11.0655
롯	-11.0656
▁완화	-11.0656
▁품질	-11.0656
▁일화	-11.0661
내에	-11.0661
▁차례로	-11.0662
▁결과가	-11.0663
▁예전	-11.0666
▁라우	-11.0667
▁왕으로	-11.0668
▁팽창	-11.0668
▁경향	-11.0668
운영	-11.067
토시	-11.067
간에	-11.0671
분이	-11.0671
카타	-11.0676
▁실종	-11.0676
▁현의	-11.0677
▁이씨	-11.0678
▁유해	-11.0678
▁파리에서	-11.0682
▁폐위	-11.0684
▁못할	-11.0685
▁노선은	-11.0686
tra	-11.0692
ts	-11.0694
GM	-11.0698
▁이전까지	-11.07
▁지지하는	-11.0701
클라	-11.0705
▁달린	-11.0706
▁쓰기	-11.0708
▁원주	-11.0708
▁우루과이	-11.071
파를	-11.071
▁파트	-11.0711
▁거점	-11.0711
호와	-11.0714
▁음원	-11.0715
▁병역	-11.0717
거래	-11.0718
이어서	-11.0718
▁고무	-11.0719
니까	-11.0719
▁강경	-11.072
▁발전소	-11.072
▁아래로	-11.0722
주년을	-11.0724
▁전망	-11.0724
정권	-11.0725
▁의원이	-11.0725
▁이루었다	-11.0727
▁화제가	-11.0727
▁개최되었다	-11.0729
▁실험을	-11.0729
▁갤럭시	-11.0732
▁건물로	-11.0732
고리	-11.0734
부작	-11.0736
語	-11.0737
▁특징이	-11.0738
▁시작된다	-11.0738
pi	-11.0738
▁나섰다	-11.0743
▁자신에게	-11.0743
▁잃은	-11.0743
▁때로는	-11.0743
▁지키	-11.0746
▁툴	-11.0746
▁친구들	-11.0746
▁중대	-11.0747
▁자문	-11.0749
▁성남	-11.0749
mb	-11.075
▁세우	-11.0751
▁정류장	-11.0752
▁피에르	-11.0752
▁유성	-11.0753
종교	-11.0754
께서	-11.0754
▁지각	-11.0754
▁토요일	-11.0755
▁앉아	-11.0758
▁야간	-11.0758
▁보충	-11.076
▁동메달을	-11.0763
▁컴	-11.0763
후보	-11.0764
▁창원시	-11.0766
▁코치로	-11.0767
▁멸	-11.0767
크스	-11.0769
▁암호	-11.0771
▁토르	-11.0772
▁은메달을	-11.0772
▁순천	-11.0773
▁그림을	-11.0775
면을	-11.0776
▁식사	-11.0778
▁전체의	-11.0781
▁캐스팅	-11.0781
▁구조의	-11.0785
▁형식의	-11.0788
▁시와	-11.0789
▁행정부	-11.0792
尙	-11.0792
▁거짓	-11.0792
▁미쓰	-11.0797
▁부위	-11.0797
ens	-11.08
▁사실은	-11.0801
조건	-11.0806
ten	-11.0807
▁수학자	-11.0807
▁신흥	-11.0811
번지	-11.0812
▁성의	-11.0816
▁전함	-11.0817
▁기습	-11.0817
주년	-11.0817
▁마이너	-11.0818
▁세계에	-11.0818
ave	-11.0821
▁모듈	-11.0825
戰	-11.0825
▁특이한	-11.0826
빅	-11.0827
▁특징은	-11.0829
야스	-11.083
▁운동의	-11.0831
(2010	-11.0831
▁젠	-11.0833
▁정찰	-11.0834
▁UN	-11.0834
▁일식	-11.0834
문이	-11.0837
졌으나	-11.0839
모를	-11.084
▁거주하는	-11.0841
▁닿	-11.0842
De	-11.0843
▁잉	-11.0843
▁장성	-11.0845
문과	-11.0845
▁득표	-11.0845
자연	-11.0847
▁둘러싼	-11.0847
▁교장	-11.0849
▁기상	-11.0852
방향	-11.0853
▁후한	-11.0853
▁몰려	-11.0855
▁플로리다	-11.0856
재판	-11.0857
나르	-11.0857
▁얻고	-11.0857
▁정밀	-11.0859
▁조건으로	-11.0859
▁레이저	-11.0859
▁채로	-11.0861
등에	-11.0862
▁버전은	-11.0862
▁해군의	-11.0862
▁소행성	-11.0862
▁선종	-11.0863
▁술탄	-11.0863
▁취지	-11.0864
▁종로구	-11.0867
cl	-11.087
나와	-11.0872
▁1894	-11.0872
클럽	-11.0873
▁인력	-11.0875
▁쿨	-11.0875
겠다	-11.0876
ory	-11.0878
▁사망자	-11.088
끼리	-11.0881
▁갖	-11.0884
▁시간은	-11.0885
国	-11.0886
實	-11.0886
업을	-11.0889
>,	-11.0889
▁링크	-11.0889
▁말하였다	-11.089
▁정부와	-11.0892
▁바꿔	-11.0892
ost	-11.0892
▁조문이다	-11.0893
▁론	-11.0895
그레	-11.0896
▁도덕	-11.0896
▁강원	-11.0897
적이며	-11.0898
▁기간에	-11.0898
였	-11.0899
나오	-11.0899
정당	-11.09
▁비례	-11.09
▁멈추	-11.0903
▁시설이	-11.0904
▁고양	-11.0906
▁레논	-11.0906
책임	-11.0907
▁때도	-11.0907
▁°	-11.0908
▁종결	-11.0912
▁유출	-11.0913
▁밀리	-11.0915
▁둥근	-11.0915
▁수신	-11.0916
▁직책	-11.0918
▁최소한	-11.0919
▁상당수	-11.092
lin	-11.092
▁풀어	-11.0922
~)	-11.0923
▁돌아오	-11.0923
▁둘레	-11.0924
▁월간	-11.0925
▁부문에	-11.0927
세에게	-11.0928
▁줄어들	-11.0929
▁미얀마	-11.093
▁발매했다	-11.0932
▁해적	-11.0932
lan	-11.0933
계와	-11.0934
▁르네상스	-11.0936
▁우연히	-11.0937
▁시대를	-11.0937
▁지점에	-11.0939
공장	-11.0941
▁슬로바키아	-11.0942
왕은	-11.0942
▁청원	-11.0942
▁규	-11.0942
▁일부로	-11.0943
▁블라	-11.0944
iz	-11.0944
넘	-11.0945
화한	-11.0947
았으나	-11.0948
5,000	-11.0948
▁전하	-11.0948
▁국가를	-11.095
▁오디오	-11.095
▁중종	-11.0951
슬리	-11.0954
▁성향	-11.0955
▁프로그램의	-11.0956
드가	-11.0957
▁일컫는	-11.0957
▁본사	-11.0958
良	-11.0958
▁무제	-11.0961
▁북부에	-11.0961
HO	-11.0962
▁초점을	-11.0962
▁자유당	-11.0962
▁연속으로	-11.0963
사리	-11.0963
智	-11.0964
▁마스	-11.0964
사령관	-11.0965
우주	-11.0965
RI	-11.0965
ven	-11.0966
ger	-11.0967
▁통행	-11.0968
▁북방	-11.0969
▁분기	-11.097
е	-11.0971
▁58	-11.0971
양군	-11.0973
▁구제	-11.0975
▁영감을	-11.098
년대에는	-11.0981
▁대외	-11.0982
▁폭격	-11.0984
전투	-11.0987
맞	-11.0987
▁트라	-11.0989
"("	-11.0989
▁에이스	-11.099
▁기종	-11.0992
▁시나리오	-11.0992
▁선언했다	-11.0993
▁게임은	-11.0993
안타	-11.0996
▁감지	-11.0996
▁학교에서	-11.0996
▁묘지	-11.0996
▁얘기	-11.0998
▁존경	-11.1
▁→	-11.1001
▁전한다	-11.1002
▁김상	-11.1003
▁사무실	-11.1003
▁하였는데	-11.1003
▁공인	-11.1004
▁저작권	-11.1004
▁이적했다	-11.1005
▁새끼	-11.1006
정리	-11.1007
▁쉬운	-11.1008
▁이스트	-11.1008
▁고려시대	-11.1009
sp	-11.1011
제작	-11.1014
▁제주특별자치도	-11.1014
▁선교사	-11.1015
▁성공적인	-11.1015
▁학생들이	-11.1016
▁분배	-11.1019
▁허브	-11.1021
▁붙인	-11.1022
▁학원	-11.1026
hi	-11.1026
▁사이에는	-11.1027
▁IP	-11.1027
놀이	-11.1027
▁결론	-11.1028
▁사상을	-11.1029
▁가면	-11.103
▁제외하고는	-11.1034
곡을	-11.1034
후에	-11.1035
시절	-11.1037
▁도망	-11.1038
▁반박	-11.104
▁김재	-11.1041
▁자격	-11.1041
▁헤드	-11.1042
▁탈환	-11.1043
EA	-11.1044
US	-11.1044
▁들어가는	-11.1046
▁진정한	-11.1047
▁분데스리가	-11.1047
▁작위를	-11.1047
▁유튜브	-11.1048
▁특이	-11.1049
▁밑에	-11.1052
플라	-11.1052
▁교외	-11.1052
▁발해	-11.1053
度	-11.1053
▁민족문제연구소	-11.1054
행성	-11.1055
ern	-11.1055
▁각지	-11.1056
▁조사를	-11.1056
▁축구단	-11.1057
▁일반화	-11.1059
▁북한의	-11.106
▁지수	-11.1062
여단	-11.1066
ou	-11.1068
▁에우	-11.1071
▁사쿠라	-11.1072
하겠다는	-11.1072
▁다음해	-11.1073
키스	-11.1074
申	-11.1076
인민	-11.1076
세트	-11.1077
▁인정받아	-11.1078
드를	-11.1078
▁l	-11.1079
▁아이슬란드	-11.1082
냥	-11.1083
▁점이다	-11.1084
FM	-11.1085
팀이	-11.1085
▁타운	-11.1085
▁전라도	-11.1093
ン	-11.1093
께	-11.1093
▁소닉	-11.1094
ster	-11.1095
▁넘어가	-11.1096
▁본명	-11.1098
▁존중	-11.1099
▁무려	-11.1102
▁57	-11.1102
▁등지에서	-11.1105
▁저택	-11.1106
공을	-11.1106
▁불편	-11.1106
▁죄를	-11.1108
▁긴장	-11.1112
번대	-11.1114
글리	-11.1114
조각	-11.1114
▁일했다	-11.1114
▁거리가	-11.1116
시기	-11.1117
▁두어	-11.1118
▁그레이	-11.1119
▁육지	-11.1121
▁있습니다	-11.1122
▁리그의	-11.1126
▁맞지	-11.1126
▁한나라	-11.1127
賢	-11.1127
▁우승하였다	-11.113
▁길게	-11.1132
▁담배	-11.1133
▁리버	-11.1133
▁하인리히	-11.1133
신의	-11.1135
선에	-11.1136
▁내외	-11.1137
▁김해	-11.1138
▁섬을	-11.1141
▁분리되어	-11.1144
▁달러를	-11.1144
▁무거운	-11.1145
인치	-11.1145
▁불가능하다	-11.1145
▁성공한	-11.1146
▁아벨	-11.1147
▁사단법인이다	-11.1147
▁문양	-11.1148
▁들어온	-11.1149
▁뜻의	-11.115
▁엘리베이터	-11.115
▁삶의	-11.115
단지	-11.1151
▁이론은	-11.1153
▁비오	-11.1153
▁꼭	-11.1154
▁운행을	-11.1156
▁테일러	-11.1156
▁중장	-11.1157
▁호세	-11.1159
空	-11.1162
保	-11.1162
▁출연한	-11.1162
▁유력	-11.1163
▁남아있는	-11.1164
▁백성	-11.1166
원과	-11.1166
▁수행하는	-11.1166
▁국무총리	-11.1167
▁교황청	-11.1168
▁노동자들	-11.1168
▁집계	-11.1169
▁No	-11.1169
▁랜	-11.1171
▁이원	-11.1171
浦	-11.1173
매치	-11.1174
(2006	-11.1174
▁않는다는	-11.1176
느냐	-11.1177
종을	-11.1179
▁중의원	-11.1179
▁빛의	-11.1179
▁단종	-11.1179
▁1890	-11.118
▁보내는	-11.1182
드와	-11.1183
▁본사는	-11.1183
▁드림	-11.1184
▁다케	-11.1184
唐	-11.1184
▁금강	-11.1185
▁110	-11.1187
ox	-11.1189
▁친정	-11.119
說	-11.119
▁삼국	-11.1191
▁기여했다	-11.1194
▁페스티벌	-11.1195
끝	-11.1196
▁중심기압	-11.1196
▁맡았고	-11.1196
▁언론인	-11.1197
▁동인	-11.1198
▁영역을	-11.1198
쟁이	-11.1198
▁사토	-11.1198
까지도	-11.1199
평화	-11.12
▁지방도	-11.12
▁바라보	-11.12
▁유니폼	-11.1202
▁쓰이고	-11.1203
▁법령	-11.1203
▁패전	-11.1203
덤	-11.1206
▁리가	-11.1208
신이	-11.1208
▁응답	-11.1208
▁방식이	-11.1209
룽	-11.1209
산을	-11.1209
▁골프	-11.121
▁결혼했다	-11.121
▁수평	-11.121
▁정체	-11.1211
▁도움으로	-11.1211
▁병행	-11.1212
▁악마	-11.1213
▁일기	-11.1216
▁생일	-11.1217
키아	-11.1218
▁심리학	-11.1218
▁중국인	-11.1218
▁반경	-11.1218
ale	-11.1218
▁그렇지	-11.1219
(7	-11.1219
▁말기에	-11.1221
ure	-11.1223
▁넣었다	-11.1224
▁플레이스테이션	-11.1225
在	-11.1225
▁김진	-11.1228
▁어릴	-11.1228
ile	-11.1229
▁88	-11.1232
▁정부로부터	-11.1234
▁고원	-11.1236
▁시칠리아	-11.1236
▁발현	-11.1238
▁오리	-11.1239
▁관리하고	-11.1239
▁전장	-11.1239
修	-11.1242
산의	-11.1242
▁움직이는	-11.1244
▁설비	-11.1244
▁정책에	-11.1244
gu	-11.1245
▁후보자	-11.1245
▁참여하여	-11.1246
▁소환	-11.1247
▁일제강점기	-11.1248
▁송나라	-11.125
IP	-11.1251
음에도	-11.1253
▁득점을	-11.1255
▁톱	-11.1258
▁재산을	-11.1258
ies	-11.1259
▁진정	-11.1259
관에	-11.126
▁시모	-11.126
▁마케팅	-11.1261
팬	-11.1262
공단	-11.1265
作	-11.1265
▁라마	-11.1266
▁상징하는	-11.1266
▁배웠다	-11.1267
▁건물을	-11.1267
▁힘들	-11.1269
▁소지	-11.1271
푸스	-11.1272
▁분류된다	-11.1273
▁소실	-11.1273
면에서	-11.1275
▁승무원	-11.1276
▁마이크	-11.1276
▁상무	-11.1276
▁역설	-11.1278
▁테니스	-11.1278
▁치세	-11.1279
요리	-11.128
▁에릭	-11.128
▁New	-11.1281
▁맞추	-11.1281
▁현종	-11.1281
res	-11.1282
▁치러진	-11.1282
월드	-11.1285
▁무신	-11.1285
▁사육	-11.1287
憲	-11.1288
무스	-11.1288
▁몬트리올	-11.1288
▁손가락	-11.1288
▁입장에서	-11.1289
▁생각한다	-11.1289
종은	-11.1289
▁IT	-11.129
▁남부에	-11.1293
▁오늘	-11.1293
▁꼴	-11.1293
▁소설가	-11.1295
같이	-11.1295
효소	-11.1297
▁의원은	-11.1298
▁신라의	-11.13
▁시기의	-11.13
▁용기	-11.1301
▁의사를	-11.1304
▁달의	-11.1304
슨은	-11.1305
▁지류	-11.1306
▁회화	-11.1311
▁사용이	-11.1312
여서	-11.1315
▁이른	-11.1316
身	-11.1317
▁되었지만	-11.1318
로마	-11.1319
▁리비아	-11.132
▁Do	-11.1324
gen	-11.1325
슬러	-11.1325
▁활약한	-11.1326
?"	-11.1327
머니	-11.1328
▁둘은	-11.1328
▁탈당	-11.133
▁시리즈에서	-11.133
첼	-11.1332
산리	-11.1333
법과	-11.1335
▁활발한	-11.1336
▁가수로	-11.1336
▁포도	-11.1337
▁판결을	-11.1337
▁의미에서	-11.1338
계급	-11.1339
클리	-11.134
으려	-11.1341
기사	-11.1341
▁스토	-11.1342
천사	-11.1343
협력	-11.1343
ish	-11.1343
▁속도가	-11.1344
les	-11.1346
▁일어날	-11.1346
▁든	-11.1346
▁타카	-11.1349
▁기록하여	-11.1352
▁가마	-11.1353
▁빗	-11.1355
셜	-11.1356
▁72	-11.1356
▁하나님	-11.1357
▁향한	-11.1357
▁ISO	-11.1357
▁미터	-11.1358
▁시에서	-11.1358
▁첼시	-11.1358
▁랑	-11.1359
조합	-11.1359
▁북위	-11.136
▁보전	-11.136
(12	-11.1361
▁회사는	-11.1363
▁네이	-11.1365
▁실려	-11.1367
▁도서	-11.137
→	-11.1372
▁마르크스	-11.1372
▁북구	-11.1372
흔	-11.1372
▁마쳤다	-11.1373
▁r	-11.1374
무기	-11.1374
色	-11.1375
▁판정	-11.1375
▁160	-11.1376
▁붙잡	-11.1377
툰	-11.1378
공무원	-11.1378
▁구조로	-11.1379
▁다운로드	-11.1381
▁인정하지	-11.1382
▁부르고	-11.1383
▁이미지를	-11.1383
▁스크린	-11.1384
▁구릉	-11.1385
▁모방	-11.1386
▁진지	-11.1386
敬	-11.1387
▁남한	-11.1389
▁콩고	-11.1389
조가	-11.139
▁설립했다	-11.1391
▁신중	-11.1391
벳	-11.1392
▁메달	-11.1393
▁나타낼	-11.1393
▁외곽	-11.1394
클레	-11.1394
▁남인	-11.1396
▁끝까지	-11.1396
▁고발	-11.1401
모가	-11.1401
▁섬에서	-11.1402
▁1898	-11.1403
梁	-11.1404
▁텍스트	-11.1404
▁있다면	-11.1405
▁생태	-11.1405
▁포스트	-11.1406
포드	-11.1406
▁마감	-11.1407
▁배틀	-11.1408
▁동래	-11.141
(8	-11.1411
▁탓에	-11.1411
▁홍수	-11.1411
▁부착	-11.1412
▁하부	-11.1414
권과	-11.1414
설을	-11.1415
기준	-11.1415
▁가속	-11.1416
▁곡들	-11.1417
▁산다	-11.1418
▁이에야스	-11.1419
여자고등학교	-11.1421
파르	-11.1423
▁대폭	-11.1424
▁노력을	-11.1427
▁정부에서	-11.1428
▁주장하고	-11.1428
▁아버지와	-11.1433
문서	-11.1433
▁것보다	-11.1434
▁노란색	-11.1436
캠퍼스	-11.1437
▁1902	-11.1438
▁남극	-11.144
▁건축가	-11.1441
▁연인	-11.1441
▁집으로	-11.1441
▁Man	-11.1441
▁사거리	-11.1443
줄기	-11.1446
▁만났다	-11.1446
▁배구	-11.1447
▁MS	-11.1448
▁협조	-11.145
▁1,2	-11.1453
!!	-11.1453
▁앨범이다	-11.1454
錄	-11.1456
▁본질	-11.1457
▁위협을	-11.1458
▁가리	-11.1458
▁것들	-11.1458
ust	-11.1458
▁끝나	-11.1458
▁사용될	-11.1459
▁번영	-11.1463
렁	-11.1463
▁계절	-11.1464
▁NBA	-11.1464
▁길고	-11.1464
▁환상	-11.1465
▁사다	-11.1468
▁아이를	-11.1469
▁않았으나	-11.1469
~5	-11.1469
▁아니지만	-11.147
힘	-11.1471
▁날짜	-11.1477
▁승강장은	-11.1477
▁뛰어나	-11.1478
▁누르고	-11.148
반응	-11.148
形	-11.148
▁걱정	-11.1481
질을	-11.1482
LS	-11.1483
▁출산	-11.1483
▁엑스	-11.1484
ence	-11.1484
선생	-11.1485
슈타인	-11.1486
▁첨가	-11.1486
PA	-11.1486
pp	-11.1491
~6	-11.1492
▁차지한	-11.1496
▁강이	-11.1496
▁속성	-11.1497
분석	-11.1497
▁일으키는	-11.1498
▁식민	-11.1498
徐	-11.1498
▁각본을	-11.1499
▁일본과	-11.1499
▁이틀	-11.1499
톱	-11.1499
으로서는	-11.1499
▁흔적	-11.1501
『	-11.1502
▁김수	-11.1504
▁오타	-11.1505
▁열고	-11.1505
만한	-11.1505
천리	-11.1506
현의	-11.1506
og	-11.1507
▁콘텐츠	-11.1508
▁IBM	-11.1511
고등	-11.1514
역은	-11.1516
▁조금씩	-11.1517
▁지구에서	-11.1518
▁기록된	-11.152
▁비슷하게	-11.1521
歌	-11.1522
양식	-11.1522
형제	-11.1522
▁쓰였다	-11.1523
가쿠	-11.1525
▁받았으나	-11.1526
omys	-11.1526
▁둘러싸고	-11.1528
▁폭스	-11.1528
▁1899	-11.1529
▁130	-11.1529
▁퓨	-11.1531
업무	-11.1533
▁파생	-11.1534
▁섭취	-11.1534
▁황태자	-11.1535
▁위장	-11.1536
▁빠	-11.1536
년동안	-11.1538
공연	-11.1539
▁입성	-11.1541
ft	-11.1541
▁막아	-11.1543
▁모자	-11.1543
▁에스파냐	-11.1546
▁콘스탄티노폴리스	-11.1546
▁재능	-11.1548
▁식당	-11.1549
▁국가대표	-11.1549
▁주제가	-11.1549
DI	-11.1553
▁전압	-11.1553
▁전쟁으로	-11.1555
▁얻는다	-11.1557
븐	-11.1559
▁자율	-11.156
▁일어나자	-11.156
▁듯한	-11.1562
▁평원	-11.1563
老	-11.1563
▁며칠	-11.1564
십자	-11.1564
▁시절부터	-11.1564
CD	-11.1566
▁즈음	-11.1566
TC	-11.1566
▁평소	-11.1567
▁벌인	-11.1567
▁소유하고	-11.1567
章	-11.1569
▁프로리그	-11.157
크의	-11.1571
AM	-11.1572
▁중심의	-11.1573
앵	-11.1574
화에	-11.1574
▁송시열	-11.1575
▁부문에서	-11.1576
클로	-11.1576
▁농도	-11.1577
▁내린	-11.1577
▁신전	-11.1577
관의	-11.1581
▁역까지	-11.1581
▁식으로	-11.1581
▁기수	-11.1581
▁방패	-11.1582
▁자랑	-11.1583
▁객체	-11.1583
▁형태는	-11.1583
▁세자	-11.1584
▁로고	-11.1584
▁만나게	-11.1585
▁함유	-11.1585
▁담당하고	-11.1586
▁총괄	-11.159
든지	-11.1591
▁사로잡	-11.1593
▁언제	-11.1594
였다고	-11.1596
▁좌절	-11.1599
▁용량	-11.1599
장애	-11.1599
▁십자가	-11.16
▁충주	-11.16
▁휴식	-11.1601
러시아	-11.1601
투표	-11.1603
▁암석	-11.1604
▁거행	-11.1607
▁허리케인	-11.1611
▁몸무게는	-11.1613
카리	-11.1614
▁이곳은	-11.1614
▁다음이	-11.1622
▁황제가	-11.1623
▁일종으로	-11.1624
버트	-11.1625
▁피난	-11.1626
▁표명	-11.1627
▁인재	-11.1627
▁구조는	-11.1628
▁사용을	-11.1629
▁마음작용	-11.1629
▁꽤	-11.163
▁me	-11.163
▁명령어	-11.163
▁전도	-11.163
▁용병	-11.1631
투자	-11.1631
소송	-11.1631
▁적의	-11.1632
나갔다	-11.1633
▁신비	-11.1634
▁라이선스	-11.1635
▁kg	-11.1635
특별	-11.1635
로드	-11.1637
▁과학자	-11.1642
tor	-11.1643
▁통근	-11.1646
력과	-11.1646
기독교	-11.1647
어져	-11.1649
▁드라이브	-11.1653
▁중국과	-11.1655
▁상부	-11.1655
▁크라	-11.1656
▁작품들	-11.1657
▁꿈을	-11.1657
로이드	-11.1658
증을	-11.1659
▁되었을	-11.1659
▁그로	-11.1662
▁팀에	-11.1664
sch	-11.1664
행사	-11.1665
▁장사	-11.1665
양성	-11.1667
▁속으로	-11.1667
재산	-11.1668
웨어	-11.1669
금지	-11.167
▁위임	-11.167
位	-11.1671
ain	-11.1671
RO	-11.1673
▁mm	-11.1674
▁퍼시픽	-11.1674
_11	-11.1674
▁원고	-11.1674
▁대처	-11.1674
▁고민	-11.1676
▁지혜	-11.1676
詩	-11.1677
블리	-11.1677
치의	-11.1679
▁파업	-11.1679
▁보여주었다	-11.1679
▁노인	-11.168
▁비서	-11.1683
석의	-11.1683
히토	-11.1684
▁조치를	-11.1684
위안	-11.1684
▁클리	-11.1685
▁생각하고	-11.1686
먼트	-11.1688
▁친일파	-11.1688
▁일본으로	-11.1689
▁저명	-11.1689
▁전에는	-11.169
▁띄	-11.1698
▁준우승	-11.1699
결과	-11.17
▁칩	-11.17
▁늦	-11.1701
하의	-11.1702
▁아크	-11.1706
나라의	-11.171
▁배신	-11.171
土	-11.1713
▁캠페인	-11.1713
)〉	-11.1713
▁진리	-11.1714
마스	-11.1715
▁일행	-11.1716
▁과정은	-11.1718
았는데	-11.172
▁영남	-11.1721
del	-11.1722
▁도미	-11.1722
▁자신과	-11.1722
▁영화배우	-11.1724
▁참가하는	-11.1728
▁지명을	-11.1729
▁무산	-11.1732
곱	-11.1736
조치	-11.1736
▁이반	-11.1737
▁읍	-11.1737
▁구동	-11.1738
▁가난한	-11.1739
▁스트리트	-11.1742
경기를	-11.1742
▁진출에	-11.1743
津	-11.1743
▁삼각	-11.1745
▁다중	-11.1745
▁박해	-11.1745
▁지사	-11.1747
省	-11.1749
▁휴전	-11.175
▁새겨져	-11.175
▁인터뷰	-11.1758
▁요구했다	-11.1759
▁등이다	-11.1761
▁부재	-11.1761
▁먹고	-11.1761
▁동명의	-11.1763
NE	-11.1765
▁알라	-11.1767
▁사우디아라비아	-11.1767
▁디스플레이	-11.1767
AT	-11.1768
스로	-11.1769
그리스	-11.1771
▁공사가	-11.1772
▁평일	-11.1773
위는	-11.1777
아웃	-11.1777
▁세트	-11.1779
버린	-11.1779
▁예언	-11.178
▁낼	-11.1783
▁컬러	-11.1783
▁소문	-11.1785
▁응원	-11.1786
▁우리의	-11.1786
역학	-11.1787
▁밑에서	-11.1787
▁눈이	-11.1788
▁정서	-11.1789
▁부도	-11.179
▁변동	-11.179
▁지폐	-11.1791
▁꼽	-11.1793
▁방법이다	-11.1795
▁발족	-11.1796
▁곰	-11.1796
▁포격	-11.1796
▁근교	-11.1797
모스	-11.1797
▁부장	-11.1797
▁KT	-11.1797
▁시작되어	-11.1798
▁캄보디아	-11.1798
▁귀중한	-11.1798
ik	-11.18
▁포드	-11.18
▁아사히	-11.1804
됨으로써	-11.1805
▁||	-11.1806
▁야생	-11.1806
iv	-11.1806
소는	-11.1807
▁선수이며	-11.1808
▁스릴러	-11.181
▁도리	-11.181
!"	-11.1811
po	-11.1812
▁제국은	-11.1814
▁노동당	-11.1815
等	-11.1816
▁1901	-11.1817
▁꼬	-11.1818
▁기요	-11.1819
되었	-11.1819
▁Ho	-11.1819
ace	-11.1819
▁횡	-11.1819
업자	-11.182
▁모양이	-11.182
야만	-11.1823
▁부정적인	-11.1825
▁버튼	-11.1825
▁지어졌다	-11.1826
▁세균	-11.1827
기획	-11.1832
▁정말	-11.1832
▁편입되었다	-11.1833
▁에티오피아	-11.1834
-9	-11.1834
▁우정	-11.1834
John	-11.1836
▁공신	-11.1841
▁조건이	-11.1841
▁한성부	-11.1842
▁세례	-11.1842
▁바오로	-11.1842
▁다양	-11.1843
▁방침	-11.1843
▁배를	-11.1843
시부터	-11.1845
▁보지	-11.1845
엠	-11.1849
▁문화방송	-11.185
▁공간의	-11.1851
▁소총	-11.1851
▁승리한	-11.1851
▁백색	-11.1854
▁일찍	-11.1855
현대	-11.1856
▁놓은	-11.1856
▁마르코	-11.1857
▁발생할	-11.1857
▁도주	-11.1858
▁강과	-11.1858
권으로	-11.1859
▁극히	-11.186
▁영문	-11.186
▁95	-11.1861
▁책봉	-11.1862
타케	-11.1863
▁v	-11.1864
▁선수들이	-11.1867
▁일도	-11.1868
▁대의원	-11.1868
▁동명	-11.1869
▁견제	-11.1869
▁He	-11.187
스탄	-11.187
▁전념	-11.187
▁수장	-11.1871
▁윌리엄스	-11.1872
▁격퇴	-11.1872
▁도착한	-11.1872
앨범	-11.1872
란드	-11.1873
▁후보가	-11.1873
▁거론	-11.1874
인들에게	-11.1875
▁서북	-11.1876
▁카이사르	-11.1877
▁장점	-11.1878
▁독일과	-11.188
▁장갑	-11.1882
▁쓰지	-11.1882
▁샹	-11.1882
▁성공하였다	-11.1883
▁환영	-11.1884
▁체계를	-11.1884
자였던	-11.1884
▁물에	-11.1885
괄	-11.1886
▁달러의	-11.1886
▁주거	-11.1887
▁임용	-11.1888
▁밟	-11.189
▁단위로	-11.189
▁명제	-11.1891
▁시즌에는	-11.1895
ran	-11.1896
▁모터	-11.1899
▁작곡한	-11.1899
▁희극	-11.1899
▁진행된	-11.19
▁총독부	-11.1901
▁밝힌	-11.1901
노르	-11.1902
▁그룹의	-11.1902
▁업적	-11.1903
▁친척	-11.1904
▁윌슨	-11.1904
▁끼	-11.1907
▁관중	-11.1907
▁카운티	-11.1908
▁라이브러리	-11.1908
▁차관	-11.1908
ism	-11.1908
▁의거	-11.1909
제와	-11.191
▁옷을	-11.1911
▁변경하였다	-11.1913
▁안산	-11.1915
돔	-11.1917
▁평야	-11.1917
▁스쿨	-11.1918
▁샌	-11.1918
▁세르	-11.1918
▁팔라	-11.1919
▁있는지	-11.1922
tal	-11.1927
▁쏘	-11.1931
秀	-11.1932
▁우승에	-11.1933
타나	-11.1933
▁행적	-11.1935
▁나눌	-11.1935
▁민속	-11.1936
▁향후	-11.1937
▁칼라	-11.1937
▁학파	-11.1938
▁지나치게	-11.1939
▁취재	-11.194
▁고려대학교	-11.1941
▁상장	-11.1942
니와	-11.1943
線	-11.1945
▁우라늄	-11.1945
idae	-11.1946
溪	-11.1951
깨	-11.1952
▁Li	-11.1953
い	-11.1957
▁나이지리아	-11.1957
루아	-11.1957
▁비유	-11.1959
▁140	-11.1959
▁공의회	-11.1959
ob	-11.196
▁금액	-11.1961
산동	-11.1964
치아	-11.1966
▁치료를	-11.1966
▁의뢰	-11.1968
CA	-11.1968
▁곡이다	-11.1968
▁오빠	-11.1969
▁스케이팅	-11.1969
井	-11.1969
▁소속이다	-11.197
폴리	-11.1971
RS	-11.1973
듬	-11.1975
sion	-11.1975
cy	-11.1976
틀리	-11.1976
▁중재	-11.1978
▁과정에	-11.1978
▁다리를	-11.1979
▁1.5	-11.1979
▁알렸다	-11.198
▁주행	-11.1982
▁유네스코	-11.1982
▁음반을	-11.1982
▁급격히	-11.1983
▁채권	-11.1987
▁스피드	-11.1988
바스	-11.1992
▁나이가	-11.1994
▁성균관	-11.1995
▁강제로	-11.1995
▁된다고	-11.1996
강전	-11.1997
▁하거나	-11.2
▁호조	-11.2002
▁버지니아	-11.2004
▁공로로	-11.2005
▁추정되는	-11.2005
▁1903	-11.2006
력은	-11.2006
▁차기	-11.2007
▁용어로	-11.2008
▁시기는	-11.2009
▁독일인	-11.2009
▁그려진	-11.2011
전으로	-11.2012
~3	-11.2012
▁요동	-11.2012
▁앙리	-11.2013
스트라	-11.2013
將	-11.2013
계는	-11.2013
▁진행된다	-11.2013
▁존속	-11.2013
▁성격이	-11.2015
리노	-11.2015
▁스크	-11.2015
▁모른다	-11.2015
oss	-11.2016
▁개발되었다	-11.2018
▁숭배	-11.2018
▁해병대	-11.2019
▁스피	-11.2021
▁시초	-11.2022
료를	-11.2022
미쓰	-11.2023
▁브라우저	-11.2025
Jo	-11.2028
▁블루스	-11.2033
▁브루	-11.2035
▁있으면서	-11.2035
▁Mar	-11.2036
▁뿔	-11.2036
EN	-11.2038
노미야	-11.204
▁내고	-11.2041
▁처분	-11.2041
▁장애인	-11.2041
á	-11.2041
▁대신하여	-11.2041
진흥	-11.2044
스카야	-11.2044
▁마천루	-11.2044
▁윤치호	-11.2044
▁섭	-11.2044
▁노래는	-11.2045
▁올스타전	-11.2045
히메	-11.2048
▁쓰인	-11.2048
▁자리잡고	-11.205
▁크리스마스	-11.205
▁활동은	-11.2051
▁지정된	-11.2052
▁용인	-11.2058
▁거느리고	-11.206
회관	-11.2061
▁맺어	-11.2062
▁개혁을	-11.2062
▁콤	-11.2062
▁인격	-11.2062
延	-11.2063
▁마루	-11.2063
▁센서	-11.2064
▁등번호	-11.2064
MHz	-11.207
▁곡이	-11.207
파와	-11.2072
▁어디	-11.2072
▁일본이	-11.2073
▁비판했다	-11.2075
思	-11.2075
▁없었기	-11.2075
▁전성기	-11.2076
▁장인	-11.2076
oll	-11.2076
▁대포	-11.2076
계가	-11.2077
▁한양	-11.2077
미를	-11.2077
▁진출했다	-11.2077
▁교수가	-11.2078
▁메시	-11.2079
▁승점	-11.2081
문화재	-11.2082
▁안보	-11.2083
같	-11.2085
▁실질적인	-11.2088
▁부근에	-11.2088
▁중심지는	-11.2089
▁지정하여	-11.2089
▁노부나가	-11.209
▁결정적인	-11.2091
있던	-11.2093
▁네이버	-11.2093
대왕	-11.2094
▁생각하는	-11.2095
▁내려가	-11.2095
▁게이지	-11.2099
▁하더라도	-11.21
▁공사를	-11.21
▁소수의	-11.21
KBS	-11.21
놓	-11.21
▁전쟁은	-11.21
▁출전하였다	-11.2101
▁목표를	-11.2101
▁날아	-11.2103
층은	-11.2103
ase	-11.2104
▁칭호를	-11.2105
▁제외하면	-11.2106
곡리	-11.2107
▁조화	-11.2107
곽	-11.2109
▁보르	-11.211
▁아랍어	-11.2111
ST	-11.2112
“	-11.2112
CI	-11.2112
▁자손	-11.2113
▁밴드의	-11.2114
min	-11.2115
▁남부의	-11.2116
▁탐지	-11.2117
하기를	-11.2117
▁스프링	-11.212
망을	-11.2123
▁밝기	-11.2123
▁입체	-11.2124
▁부리	-11.2124
are	-11.2124
▁팀인	-11.2125
베르트	-11.2126
▁있어서는	-11.2126
▁대원	-11.2127
▁신생	-11.2127
▁일시적으로	-11.2128
레아	-11.213
▁University	-11.213
프로그램	-11.2131
▁68	-11.2134
▁파장	-11.2134
▁생각해	-11.2135
▁것에서	-11.2136
▁회계	-11.2137
弘	-11.2138
도어	-11.2138
七	-11.2138
▁뜨	-11.214
▁식별	-11.214
ock	-11.2141
Pr	-11.2142
▁각본	-11.2144
▁개교	-11.2146
▁요소가	-11.2147
▁없애	-11.2147
▁휘하	-11.2148
▁PD	-11.215
▁팔레스타인	-11.215
▁형사소송법	-11.215
ep	-11.2151
▁필요성	-11.2151
▁드럼	-11.2154
▁공모	-11.2154
펙	-11.2155
右	-11.2157
▁왜냐하면	-11.2157
▁쌍둥이	-11.2157
쿨	-11.2158
▁입당	-11.2159
▁윗	-11.2162
가르	-11.2163
언어	-11.2164
▁오리콘	-11.2164
보르	-11.2164
흘	-11.2164
▁테이블	-11.2164
▁갓	-11.2164
▁얀	-11.2164
▁사서	-11.2167
▁입단했다	-11.2169
다면	-11.2172
▁차종	-11.2173
▁이름인	-11.2173
ius	-11.2175
▁미국이	-11.2175
▁밀양	-11.2175
▁받았	-11.2177
▁장편	-11.2178
▁연구는	-11.2179
▁부분적으로	-11.2179
▁좋	-11.218
▁하나이며	-11.218
▁웰	-11.218
▁호환	-11.2181
▁되돌아	-11.2182
副	-11.2182
ko	-11.2182
세르	-11.2182
▁고쳐	-11.2184
▁인형	-11.2184
▁펴	-11.2184
▁중간에	-11.2185
집을	-11.2185
시노	-11.2186
nowiki	-11.2188
▁중기	-11.2193
▁나주	-11.2195
PC	-11.2196
영어	-11.2197
니가	-11.2199
▁나오지	-11.2199
▁댐	-11.2202
코는	-11.2203
▁들어와	-11.2203
▁결혼식	-11.2204
▁위키백과	-11.2207
▁엑	-11.2208
▁대답	-11.2208
▁공헌	-11.2211
▁한국에	-11.2212
▁한국전쟁	-11.2212
족은	-11.2212
▁사람과	-11.2213
900	-11.2213
ib	-11.2216
▁작센	-11.2217
▁풍부	-11.2217
▁잃었다	-11.2218
▁거주하고	-11.2219
▁cm	-11.2219
▁넣고	-11.2219
▁놓았다	-11.2219
▁보좌	-11.2219
▁상류	-11.2222
▁드래곤	-11.2222
▁필립	-11.2222
▁최상위	-11.2224
式	-11.2226
▁의상	-11.2228
▁패스	-11.223
▁63	-11.223
공항	-11.223
▁US	-11.2231
▁제트	-11.2233
▁중순	-11.2233
코가	-11.2235
▁별의	-11.2235
▁단장	-11.2236
▁어휘	-11.2238
▁몸에	-11.2238
책을	-11.2239
렸으나	-11.2244
▁참고로	-11.2244
Ma	-11.2245
▁검은색	-11.2246
▁몰래	-11.2247
▁포켓몬	-11.2249
ED	-11.2249
▁메트로	-11.225
스럽게	-11.2251
▁기록하는	-11.2253
륙	-11.2255
▁이루	-11.2256
▁충격을	-11.2257
▁영국은	-11.2257
▁산림	-11.2259
▁윈	-11.2259
▁이긴	-11.2259
▁해변	-11.2259
결정	-11.226
▁조리	-11.226
言	-11.2263
▁개찰구	-11.2264
nd	-11.2265
▁관념	-11.2266
약을	-11.2266
▁마리오	-11.2268
▁여행을	-11.2269
▁엄마	-11.227
風	-11.2271
ā	-11.2271
헌법	-11.2272
▁구조가	-11.2274
▁블레	-11.2275
카스	-11.2276
▁김기	-11.2277
▁총회	-11.2278
▁보완	-11.2281
▁양측	-11.2282
전차	-11.2282
派	-11.2283
▁간격	-11.2284
픽	-11.2285
▁유니	-11.2285
GB	-11.2285
▁풍경	-11.2285
▁초반에	-11.2286
▁독일은	-11.2288
▁배후	-11.2288
▁차원에서	-11.2289
▁동남	-11.2289
▁연관	-11.229
流	-11.229
▁나타내	-11.2294
▁안나	-11.2294
▁서식하는	-11.2295
▁해소	-11.2295
監	-11.2296
▁부대를	-11.2296
▁링컨	-11.2297
팡	-11.2297
▁군은	-11.2298
▁진짜	-11.23
▁위탁	-11.23
▁섬으로	-11.23
齋	-11.2303
▁정사	-11.2305
▁탐사선	-11.2306
▁콘크리트	-11.2309
▁실패하였다	-11.2309
▁경상도	-11.2314
▁정무	-11.2315
)』	-11.2315
▁자세한	-11.2316
▁바가	-11.2316
이즈	-11.2317
시키지	-11.2318
▁추출	-11.2318
▁남양	-11.2319
間	-11.2322
▁평정	-11.2322
▁중앙위원회	-11.2325
▁혹	-11.2326
▁인접	-11.2326
▁부과	-11.2327
함은	-11.2327
태수	-11.2331
▁서정	-11.2334
▁보살	-11.2334
://	-11.2335
▁과거의	-11.2335
▁수습	-11.2335
▁간단히	-11.2336
▁왕위에	-11.2337
부리	-11.2337
▁관해	-11.2339
▁모델은	-11.2339
int	-11.2339
▁강력	-11.234
▁데뷔를	-11.234
▁승차	-11.2342
▁후일	-11.2343
▁온천	-11.2345
▁직전에	-11.2345
▁노드	-11.2346
▁겪었다	-11.2347
命	-11.2347
▁느껴	-11.2348
▁턱	-11.2348
▁지내	-11.2348
▁연결된	-11.2351
▁냉각	-11.2352
▁양키스	-11.2352
▁명사	-11.2353
▁이순신	-11.2355
▁환경에서	-11.2355
▁범인	-11.2356
▁계열사	-11.2357
타점	-11.2358
▁도시철도	-11.2359
▁이상으로	-11.236
▁펼쳤다	-11.236
▁사이가	-11.236
▁시장에서	-11.2361
(10	-11.2363
▁일명	-11.2364
act	-11.2365
▁니콜라	-11.2366
▁문화체육관광부	-11.2367
▁억압	-11.2367
즈카	-11.2369
▁던져	-11.237
▁마약	-11.237
▁빼앗	-11.2371
▁보드	-11.2372
郞	-11.2373
스틱	-11.2379
▁힘입어	-11.238
av	-11.238
▁자신도	-11.2382
▁데뷔하였고	-11.2383
▁우편	-11.2386
멀	-11.2388
▁Di	-11.2388
▁업적을	-11.239
▁미노	-11.239
인들을	-11.239
▁멘	-11.2391
▁근처에서	-11.2393
론이	-11.2393
▁갈라	-11.2394
붙	-11.2394
00,000	-11.2394
▁59	-11.2395
▁공적	-11.2399
▁군을	-11.2399
▁기생	-11.2399
▁밀도	-11.24
▁모델을	-11.24
▁개막전	-11.2403
론에	-11.2403
▁기점으로	-11.2404
ei	-11.2405
▁그랑프리	-11.2406
▁알제리	-11.2406
▁활동하는	-11.2406
▁선보였다	-11.2406
▁문인	-11.2406
▁스콧	-11.2407
예프	-11.2407
처분	-11.2409
▁바치	-11.2409
MP	-11.2409
▁시호를	-11.2411
▁과제	-11.2412
▁슬로베니아	-11.2412
문자	-11.2414
▁성숙	-11.2414
▁존재하며	-11.2417
▁성은	-11.2418
▁배치되어	-11.2418
▁종으로	-11.2419
▁시절에는	-11.242
험	-11.242
▁야구장	-11.2421
형식	-11.2422
▁후안	-11.2423
fe	-11.2426
▁주위에	-11.2427
놓고	-11.2427
▁월드컵에	-11.2429
이었다고	-11.2432
주고	-11.2432
▁옛날	-11.2432
화의	-11.2435
▁하트	-11.2436
▁생각할	-11.2437
▁군에	-11.2439
기계	-11.2439
▁활약했다	-11.2441
▁분기점	-11.2443
▁상태였다	-11.2445
비용	-11.2445
▁고립	-11.2446
▁경험이	-11.2447
▁설탕	-11.2447
▁찾아볼	-11.2448
▁둥	-11.2449
질이	-11.2449
▁최후의	-11.245
▁거기서	-11.2452
▁실질적으로	-11.2454
▁체포되어	-11.2456
▁너비	-11.2456
▁양상	-11.2457
▁승계	-11.2457
▁따르	-11.2459
▁배터리	-11.246
▁여기에는	-11.246
▁1897	-11.2461
(2012	-11.2461
▁인접한	-11.2462
▁후방	-11.2463
▁CF	-11.2464
▁업그레이드	-11.2464
류는	-11.2465
치카	-11.2466
문의	-11.2468
산화	-11.2468
▁조선일보	-11.2469
▁벌금	-11.247
되었다가	-11.2472
▁고수	-11.2474
▁밴드이다	-11.2474
▁동력	-11.2475
▁고백	-11.2478
va	-11.2479
▁뛰어	-11.2479
▁사이클	-11.248
햄	-11.248
▁높고	-11.2481
▁기어	-11.2482
▁남구	-11.2483
부산	-11.2483
▁다루	-11.2483
▁회사를	-11.2483
▁실용	-11.2484
학교를	-11.2484
토모	-11.2485
▁공산	-11.2486
▁뷰	-11.2486
▁미국에서는	-11.2486
▁PS	-11.2487
▁혈통	-11.2488
훈장	-11.2489
▁블랙홀	-11.2491
-0	-11.2493
▁호평을	-11.2493
▁신호를	-11.2495
▁Su	-11.2495
▁지적했다	-11.2497
▁교섭	-11.2497
▁헤어	-11.2498
교사	-11.2498
▁김경	-11.2499
구와	-11.2499
▁왔	-11.2501
▁국가로	-11.2502
▁프로그램이	-11.2502
▁부족한	-11.2502
뜨	-11.2502
플로	-11.2503
▁어원	-11.2503
▁전체가	-11.2506
족과	-11.2507
RT	-11.2507
▁광범위한	-11.2509
陳	-11.2509
▁음식을	-11.2509
라노	-11.251
▁이루어지고	-11.251
▁코믹스	-11.251
▁확신	-11.251
▁시스템이	-11.2513
_12	-11.2513
▁현금	-11.2514
▁대조	-11.2515
체육	-11.2515
▁al	-11.2515
▁지고	-11.2516
ey	-11.2517
▁후궁	-11.2517
▁극장판	-11.2517
▁삼성전자	-11.2518
▁트윈스	-11.2519
▁사라졌다	-11.2519
▁몬테	-11.252
▁정해진	-11.2521
▁권유	-11.2522
▁디아	-11.2523
大夫	-11.2523
▁교수는	-11.2523
▁주권	-11.2523
▁태양계	-11.2523
▁도입되었다	-11.2526
▁가요	-11.2527
▁청주시	-11.2527
▁문서는	-11.2527
▁무렵에	-11.2528
당하고	-11.2528
▁핑	-11.2529
▁확인되었다	-11.2532
▁계획에	-11.2533
▁하나님의	-11.2534
▁동아일보	-11.2535
Mo	-11.2536
▁국내에서	-11.2537
▁이마	-11.2541
▁토니	-11.2542
▁매출	-11.2543
▁우세	-11.2549
▁광해군	-11.255
렀	-11.2552
▁여름에	-11.2552
변화	-11.2553
개미	-11.2554
지오	-11.2555
▁이래로	-11.2555
數	-11.2555
▁아비	-11.2557
▁지구와	-11.2557
해주는	-11.2563
▁노조	-11.2563
▁버렸다	-11.2563
▁북동부	-11.2565
앞	-11.2565
▁힘든	-11.2565
▁영의정	-11.2566
多	-11.2569
▁총칭	-11.2569
▁의회는	-11.257
▁감독과	-11.2571
자르	-11.2573
▁태도를	-11.2574
▁장미	-11.2578
아는	-11.2579
▁요크	-11.2579
▁아오	-11.258
▁대통령을	-11.2581
▁법을	-11.2581
▁중단되었다	-11.2581
▁넘겨	-11.2582
▁시작하였고	-11.2582
▁담겨	-11.2583
ps	-11.2585
샘	-11.2586
▁불리게	-11.2586
SU	-11.2587
보로	-11.2588
▁페어	-11.2589
프스키	-11.259
회로	-11.2591
구간	-11.2591
▁베드로	-11.2592
▁사인	-11.2592
▁부천	-11.2595
▁기록해	-11.2595
▁지속적인	-11.2596
속의	-11.2596
▁반해	-11.2597
▁이슈	-11.2598
▁직접적으로	-11.2599
임에도	-11.26
用	-11.26
▁일컫는다	-11.2602
▁하나였다	-11.2604
문은	-11.2604
▁각자	-11.2605
보리	-11.2607
藏	-11.2608
ö	-11.2608
닉스	-11.2608
▁참가하고	-11.2609
tu	-11.2609
▁북서쪽	-11.2612
(11	-11.2612
ire	-11.2613
▁제사	-11.2613
▁등장했다	-11.2613
▁보여주	-11.2614
▁투옥	-11.2615
▁밀접한	-11.2615
IM	-11.2616
▁공세	-11.2616
out	-11.2616
▁대행	-11.2618
▁성사	-11.2618
대군	-11.2618
▁장거리	-11.2621
▁DC	-11.2621
▁새누리당	-11.2621
▁대표적	-11.2621
터널	-11.2622
▁와이	-11.2625
▁복귀하였다	-11.2625
▁비극	-11.2625
Sh	-11.2626
▁발트	-11.2628
▁영화에	-11.2629
터리	-11.263
gi	-11.263
▁말리	-11.2631
▁참여하고	-11.2632
▁질량은	-11.2634
▁편리	-11.2634
▁과학기술	-11.2635
▁축하	-11.2635
▁거리는	-11.2638
▁62	-11.2638
▁수용소	-11.2639
▁임상	-11.264
▁행진	-11.2642
▁겹	-11.2646
주식회사	-11.2646
리코	-11.2648
이상	-11.2648
ical	-11.2649
FF	-11.2649
기념	-11.265
:1	-11.2651
▁셸	-11.2652
▁첩	-11.2652
▁프랭크	-11.2655
▁국소	-11.2655
사카	-11.2659
팩	-11.2659
▁당주	-11.266
샨	-11.2661
▁연합국	-11.2661
▁연상	-11.2661
RA	-11.2665
▁타이거즈	-11.2665
▁소설을	-11.2666
▁아래에서	-11.2666
▁야마토	-11.2667
▁와인	-11.2669
▁들어간다	-11.2669
▁순회	-11.267
▁움직이	-11.2671
▁관할하는	-11.2672
▁메르	-11.2672
▁딸을	-11.2672
▁선수로서	-11.2672
▁개념이	-11.2673
▁드문	-11.2675
▁대피	-11.2677
이라도	-11.2678
▁폭풍	-11.2678
군수	-11.2679
▁루터	-11.2681
▁법무부	-11.2682
▁사건이다	-11.2682
학자이다	-11.2682
▁발매하였다	-11.2685
▁앱	-11.2686
▁비가	-11.2686
▁봉안	-11.2686
▁운하	-11.2686
▁순수한	-11.2686
▁마일	-11.2688
해도	-11.2688
▁토성	-11.2689
▁오키나와	-11.2689
▁강수량은	-11.269
▁올스타	-11.2692
▁170	-11.2694
▁가려	-11.2694
놓은	-11.2695
마트	-11.2695
▁커널	-11.2696
치료	-11.2698
▁구조물	-11.2698
직에	-11.27
▁주장한	-11.2701
박사	-11.2704
팽	-11.2704
▁프랑	-11.2705
▁믿	-11.2706
▁상하	-11.2707
玄	-11.2707
▁2,000	-11.2708
▁그쳤다	-11.2708
▁부분에서	-11.2709
색을	-11.2711
▁신규	-11.2712
▁천사	-11.2712
연속	-11.2713
▁뜨거운	-11.2714
▁난징	-11.2714
▁자연스럽게	-11.2715
▁지바	-11.2715
져서	-11.2716
▁공백	-11.272
▁조선로동당	-11.2721
무장	-11.2721
▁부자	-11.2725
▁환원	-11.2727
▁빌려	-11.2727
▁우드	-11.2728
지역의	-11.2729
▁종래	-11.2729
시게	-11.2731
부르	-11.2731
way	-11.2733
쉽	-11.2734
▁대위	-11.2735
▁최후	-11.2735
렸으며	-11.2738
▁행정동	-11.2739
▁날에	-11.2739
▁협주곡	-11.2741
▁기반의	-11.2743
판에	-11.2744
▁부대는	-11.2744
▁출전한	-11.2745
턱	-11.2747
▁동료들	-11.2747
▁그러던	-11.2753
▁정도였다	-11.2753
▁아바	-11.2754
口	-11.2754
▁먹이를	-11.2756
▁취항	-11.2756
▁코트	-11.2757
▁중심부	-11.2758
태평양	-11.2758
▁재상	-11.276
▁경우를	-11.2763
▁다양하다	-11.2764
왕국	-11.2764
▁왕복	-11.2764
▁돌리	-11.2765
▁담긴	-11.2766
▁카자흐스탄	-11.2768
達	-11.2768
▁사위	-11.2768
렵	-11.277
▁관리하는	-11.277
▁그냥	-11.2771
지아	-11.2772
▁시베리아	-11.2774
전에서는	-11.2775
▁서울대	-11.2778
▁무상	-11.2779
▁뉴턴	-11.2779
▁구출	-11.278
통제	-11.278
▁진급	-11.278
▁체코슬로바키아	-11.2781
▁바티칸	-11.2781
▁이후로는	-11.2781
츠는	-11.2781
▁승인을	-11.2781
▁난다	-11.2782
▁허리	-11.2782
▁붙은	-11.2783
▁그날	-11.2785
▁적고	-11.2786
▁자동으로	-11.2787
▁믿고	-11.2789
▁협박	-11.279
여명의	-11.2792
▁제독	-11.2792
ling	-11.2793
▁미군정	-11.2793
▁장치를	-11.2793
▁제품을	-11.2793
▁오스	-11.2795
패로	-11.2797
대손	-11.2797
▁측근	-11.2799
▁그녀	-11.2799
▁독립된	-11.28
보스	-11.28
▁이어진다	-11.28
皇	-11.28
▁사리	-11.28
▁고르	-11.2803
▁보일	-11.2803
작은	-11.2805
mon	-11.2807
ial	-11.2808
▁관리자	-11.2808
미니	-11.2808
▁포병	-11.281
▁세이부	-11.2813
▁펼치	-11.2815
▁외야수	-11.2815
CO	-11.2817
▁수령	-11.2819
전의	-11.2821
▁지식을	-11.2824
면적	-11.2826
▁소유자	-11.2826
▁첨	-11.2828
▁실패로	-11.2832
▁결코	-11.2832
▁제사를	-11.2833
▁실체	-11.2834
▁일가	-11.2836
NS	-11.2838
제이	-11.2839
루수	-11.284
▁계속되었다	-11.284
▁나눠	-11.2842
▁비문	-11.2842
▁st	-11.2842
▁구축함	-11.2843
▁공직	-11.2844
▁블로그	-11.2844
▁생산하는	-11.2844
▁이용한다	-11.2844
▁글로	-11.2844
yn	-11.2845
▁칭찬	-11.2845
許	-11.2848
▁승부차기	-11.2848
▁구간을	-11.2849
▁말씀	-11.2849
▁고치	-11.285
▁급제하여	-11.2852
브스	-11.2854
▁프랑수아	-11.2855
▁준비를	-11.2856
▁적분	-11.2858
▁굉장히	-11.2862
▁가마쿠라	-11.2862
▁연방의	-11.2866
▁차이점	-11.2866
▁무효	-11.2867
다운	-11.2867
▁대웅전	-11.2869
II	-11.2869
▁부시	-11.2871
▁소속된	-11.2872
꼬	-11.2873
▁진공	-11.2873
▁경성부	-11.2874
任	-11.2875
▁포지션	-11.2875
▁이글스	-11.2876
▁사망하고	-11.2876
▁문과에	-11.2877
▁겉	-11.2878
(2009	-11.2878
▁통틀어	-11.2882
▁얻지	-11.2885
▁축출	-11.2886
방을	-11.2889
프가	-11.289
▁비로소	-11.289
▁유래한	-11.289
▁공습	-11.2893
Ro	-11.2896
▁축적	-11.2897
소의	-11.2898
▁정렬	-11.2903
▁자사	-11.2904
빵	-11.2904
▁아미	-11.2904
col	-11.2904
목으로	-11.2907
▁세계관	-11.2909
▁의미의	-11.291
▁죽였다	-11.2911
▁아마도	-11.2914
SP	-11.2915
▁스튜어트	-11.2916
▁이름에서	-11.2918
▁것으로서	-11.2921
미야	-11.2922
▁게이트	-11.2922
▁수술을	-11.2923
▁기업인	-11.2923
▁근원	-11.2925
메르	-11.2927
▁강남	-11.2927
기에는	-11.2928
짱	-11.2929
▁개발에	-11.293
▁나쁜	-11.2931
함으로	-11.2932
▁피신	-11.2932
▁수렴	-11.2933
▁시가지	-11.2936
▁소통	-11.2936
▁승격되었다	-11.2938
▁제압	-11.2938
엉	-11.2938
▁con	-11.2941
▁토착종	-11.2942
▁경기에서는	-11.2944
포르	-11.2944
▁신용	-11.2945
해방	-11.2947
▁직결	-11.2948
▁경우에도	-11.2949
▁종류가	-11.2949
л	-11.2949
▁재현	-11.2949
▁아열대	-11.295
▁트위터	-11.2952
▁최저	-11.2957
nc	-11.2959
▁넣은	-11.296
▁돼지	-11.296
눌	-11.2961
교도	-11.2961
▁결성된	-11.2961
▁묘역	-11.2961
▁단식	-11.2962
실을	-11.2962
▁자체는	-11.2963
▁장려	-11.2963
노선	-11.2963
▁총애	-11.2963
율이	-11.2964
채널	-11.2966
▁원산	-11.2968
력으로	-11.2969
▁조직의	-11.297
▁다룬다	-11.297
받지	-11.297
甲	-11.297
▁개미	-11.297
미아	-11.2971
▁(2	-11.2972
가수	-11.2973
▁비정	-11.2977
對	-11.2977
▁감정을	-11.2983
ja	-11.2983
▁사이버	-11.2983
▁회사이다	-11.2983
병으로	-11.2985
겼	-11.2987
신경	-11.2987
▁않으나	-11.2987
편으로	-11.2989
▁AS	-11.2989
▁61	-11.299
잡이	-11.299
▁내정	-11.299
▁만났	-11.2991
▁물러났다	-11.2992
▁부모님	-11.2993
▁주어진다	-11.2993
▁모델이	-11.2993
▁III	-11.2993
▁말기의	-11.2995
킨스	-11.2996
▁Ca	-11.2998
▁인체	-11.2999
▁최대한	-11.3
▁따른다	-11.3001
세종	-11.3002
▁대상을	-11.3003
▁카를로	-11.3006
▁99	-11.3006
▁하워드	-11.3007
▁논문을	-11.3007
▁상임	-11.3008
▁사회에서	-11.3008
▁극단	-11.3009
티나	-11.301
▁운명	-11.3011
▁몰리	-11.3012
RC	-11.3014
rea	-11.3015
》("	-11.3016
식과	-11.3016
▁머신	-11.3018
反	-11.3018
μ	-11.3019
▁규모로	-11.302
▁세상에	-11.302
리언	-11.3023
▁방송사	-11.3023
▁율	-11.3023
▁이영	-11.3028
▁칭호	-11.3028
▁대학을	-11.3029
차량	-11.3029
▁흔	-11.3031
▁존재했던	-11.3031
▁영상을	-11.3031
▁기능은	-11.3034
▁증대	-11.3035
▁비용을	-11.3036
석으로	-11.3038
▁선수를	-11.3042
▁직위	-11.3043
물리학	-11.3045
朝鮮	-11.3046
▁횟수	-11.3046
▁않았다고	-11.3047
마일	-11.3047
▁85	-11.3048
방위	-11.305
▁무기를	-11.3051
▁경상남도의	-11.3051
▁재혼	-11.3051
▁춘천	-11.3054
▁모르는	-11.3054
몸	-11.3055
▁수면	-11.3055
▁미상	-11.3057
▁삿포로	-11.306
바다	-11.3063
▁유죄	-11.3065
지리	-11.3066
▁방송되었다	-11.3066
▁맵	-11.3066
FL	-11.3066
鳳	-11.3067
▁중반에	-11.3068
▁별명을	-11.3068
▁나가사키	-11.307
내에서	-11.3072
▁유수	-11.3073
節	-11.3074
아스	-11.3075
대륙	-11.3077
▁루트	-11.3078
▁튜	-11.308
▁화장실	-11.308
▁장관을	-11.3081
쾌	-11.3081
▁오프닝	-11.3081
▁고령	-11.3081
▁뚫	-11.3085
▁달성했다	-11.3086
▁선언하였다	-11.3086
▁가짜	-11.3087
志	-11.3087
▁오노	-11.3087
▁자유형	-11.3088
▁유아	-11.309
▁의식을	-11.309
▁대한민국에	-11.3091
(2014	-11.3091
▁자체를	-11.3092
▁헐	-11.3092
더니	-11.3092
錫	-11.3095
길이	-11.3095
받을	-11.3096
쿠마	-11.3096
▁지휘하는	-11.3097
UN	-11.3098
▁잊	-11.3098
내고	-11.3099
천여	-11.3101
▁가깝다	-11.3101
▁불교의	-11.3103
▁It	-11.3104
▁치즈	-11.3107
▁프랑크푸르트	-11.3108
▁가지며	-11.3109
▁이식	-11.3109
상으로는	-11.311
복지	-11.311
▁해명	-11.3111
▁오오	-11.3111
ev	-11.3113
▁연봉	-11.3113
▁응우옌	-11.3115
亭	-11.3115
楊	-11.3115
▁개발자	-11.3116
▁전지	-11.3116
▁물리학자	-11.3118
▁얻	-11.312
▁리그에	-11.3121
_13	-11.3121
▁타원	-11.3122
고려	-11.3122
경기장	-11.3123
▁추측된다	-11.3125
미는	-11.3125
▁결정되었다	-11.3127
▁스핀	-11.3128
▁자아	-11.3128
▁누군가	-11.3129
크리	-11.313
▁폐기	-11.3131
▁1884	-11.3132
▁금메달	-11.3132
믹	-11.3133
잇	-11.3133
▁리스트	-11.3134
yl	-11.3134
濟	-11.3135
▁키프로스	-11.3136
▁컬럼비아	-11.3136
테크	-11.3136
▁즉각	-11.3137
dy	-11.3138
▁특징으로	-11.3138
▁바이오	-11.3141
▁루시	-11.3141
▁모로코	-11.3142
▁대학에	-11.3142
▁회사가	-11.3142
▁네오	-11.3143
▁시설을	-11.3145
각형	-11.3145
임이	-11.3146
해온	-11.3146
춤	-11.3147
▁외모	-11.3151
▁연기를	-11.3151
▁속하며	-11.3151
▁화해	-11.3151
▁프레임	-11.3152
▁참여하는	-11.3153
▁배수	-11.3154
희는	-11.3156
집행	-11.3157
▁가신	-11.3158
안은	-11.3158
▁센다이	-11.3158
청은	-11.3159
▁고사	-11.3161
▁푸른	-11.3162
▁있었을	-11.3162
▁서식	-11.3162
▁법무	-11.3163
▁바퀴	-11.3164
▁돌격	-11.3165
▁오프	-11.3167
▁학자들은	-11.3168
토프	-11.3168
▁위치하는	-11.3169
▁연기자	-11.317
▁동형	-11.317
▁명종	-11.3173
▁것인데	-11.3174
▁팽	-11.3176
▁근본	-11.3176
▁황실	-11.3177
▁불을	-11.3177
못	-11.3178
판매	-11.3179
▁유사하다	-11.318
지에서	-11.3182
ook	-11.3183
▁신조	-11.3185
▁컨셉	-11.3185
▁산하에	-11.3186
포로	-11.3186
▁목재	-11.3186
모어	-11.3186
됐	-11.3187
▁광둥	-11.3188
라르	-11.3188
▁관직을	-11.3188
▁세월	-11.3189
▁만나는	-11.3189
▁구미	-11.3189
▁연산자	-11.3189
▁없어서	-11.319
▁사고가	-11.319
▁판본	-11.319
▁인가	-11.3191
사실	-11.3192
회장	-11.3192
▁연세대학교	-11.3193
현은	-11.3193
리즘	-11.3196
띠	-11.3197
▁열정	-11.3197
▁배우로	-11.3197
▁잔류	-11.3198
았지만	-11.3199
▁어업	-11.3199
▁장례	-11.32
▁스타리그	-11.3202
▁어워드	-11.3204
▁수도인	-11.3204
특히	-11.3205
▁가죽	-11.3205
沈	-11.3206
▁긍정적인	-11.3208
▁당일	-11.3208
▁나누	-11.3209
▁내용으로	-11.3209
▁경찰은	-11.3211
▁작아	-11.3212
▁왜곡	-11.3213
▁조종사	-11.3214
▁북서부	-11.3214
대구	-11.3214
▁톤	-11.3214
▁막내	-11.3214
▁포스	-11.3215
▁살해당	-11.3215
원에서	-11.3216
라니	-11.3219
▁양반	-11.3219
za	-11.322
▁남동쪽	-11.322
왔으며	-11.322
▁책임자	-11.3221
전문학교	-11.3221
번을	-11.3222
▁숙청	-11.3223
▁360	-11.3224
▁언니	-11.3224
▁둘러	-11.3225
소에서	-11.3228
민의	-11.323
▁2.0	-11.323
▁스티브	-11.323
▁만남	-11.3231
하임	-11.3232
ny	-11.3232
í	-11.3234
▁산란	-11.3234
▁이루어지는	-11.3235
▁살아남	-11.3236
▁중성자	-11.3237
▁시범	-11.3238
▁저하	-11.3238
▁역의	-11.3239
▁준우승을	-11.3239
▁아레나	-11.3241
▁상점	-11.3242
▁오해	-11.3242
▁연고지로	-11.3244
▁사회학	-11.3245
▁적합한	-11.3245
NO	-11.3246
ever	-11.3246
den	-11.3247
▁해상에서	-11.3248
▁옵션	-11.3248
들인	-11.3249
▁포장	-11.3251
▁동상	-11.3252
▁인정하고	-11.3253
▁치안	-11.3254
주의의	-11.3255
TE	-11.3255
릭스	-11.3255
ning	-11.3256
▁비율	-11.3256
▁풍자	-11.3258
▁98	-11.3259
▁탐험	-11.326
常	-11.3261
▁국가에	-11.3261
館	-11.3262
▁어려워	-11.3262
▁띠고	-11.3262
▁Sa	-11.3263
▁그룹이다	-11.3264
▁대회의	-11.3265
▁일대에	-11.3266
oo	-11.3268
靈	-11.3269
▁벨라루스	-11.3269
LE	-11.3269
갔으며	-11.327
▁아예	-11.3272
라크	-11.3275
▁사회에	-11.3275
▁용어를	-11.3276
▁사용되지	-11.3276
빌딩	-11.3278
▁혼동	-11.3279
▁키스	-11.3279
▁러시아어	-11.328
▁초과	-11.328
ous	-11.3281
▁느낌을	-11.3282
▁다니엘	-11.3282
해지는	-11.3284
▁참모	-11.3284
▁가장자리	-11.3285
▁For	-11.3286
▁10%	-11.3288
▁물질을	-11.3288
▁유방	-11.3288
▁모용	-11.329
▁라이온즈	-11.329
플리	-11.329
▁밀집	-11.3292
▁적극적인	-11.3293
▁만세	-11.3294
▁착공	-11.3294
▁할머니	-11.3295
린은	-11.3297
▁과목	-11.3297
워스	-11.33
▁답변	-11.3301
▁김현	-11.3303
▁설명한다	-11.3304
▁도시가	-11.3305
▁최근의	-11.3306
▁충남	-11.3306
▁간접	-11.3308
레이트	-11.3309
▁카스	-11.3313
▁규모는	-11.3313
PL	-11.3315
루타	-11.3316
net	-11.3316
▁이윤	-11.3316
▁않는다고	-11.3316
▁싱글로	-11.3317
▁교단	-11.3317
▁라이언	-11.3317
▁황족	-11.3318
▁이유를	-11.3318
터스	-11.3319
▁66	-11.3322
▁천장	-11.3323
▁존재하고	-11.3324
▁가동	-11.3324
미나	-11.3325
(2008	-11.3325
▁적다	-11.3326
아라	-11.3326
▁오라	-11.3327
▁옹립	-11.3327
▁욕	-11.3329
▁우측	-11.3331
▁해전	-11.3332
상황	-11.3333
실에서	-11.3335
▁공익	-11.3335
▁유래했다	-11.3335
▁매입	-11.3336
▁탑신	-11.3336
▁풍속	-11.3337
ric	-11.3338
히라	-11.3338
만여	-11.3339
▁만주국	-11.3339
阿	-11.334
곡동	-11.3342
▁복장	-11.3342
▁be	-11.3343
센트	-11.3344
▁낸다	-11.3347
▁벼	-11.3348
▁학교에	-11.3348
설이	-11.3353
▁기업이다	-11.3354
▁베어스	-11.3355
▁카를로스	-11.3355
▁전인	-11.3355
▁채워	-11.3355
▁결정된다	-11.3356
▁대한민국과	-11.3356
▁팀들	-11.3357
han	-11.3359
층이	-11.336
▁닐	-11.336
▁패키지	-11.3361
▁않음	-11.3364
뷔	-11.3364
▁그다지	-11.3365
▁후임으로	-11.3366
▁촉구	-11.3366
▁총대주교	-11.3368
▁청산	-11.3369
▁공간이	-11.337
발을	-11.337
ye	-11.3371
▁딸인	-11.3373
▁결과에	-11.3373
망이	-11.3374
▁조용	-11.3374
론과	-11.3376
▁분비	-11.3377
TP	-11.338
▁빛이	-11.3381
네르	-11.3381
▁시장에	-11.3382
御	-11.3382
進	-11.3382
펑	-11.3382
사지	-11.3383
▁여당	-11.3384
▁일생	-11.3384
▁성취	-11.3384
BO	-11.3384
▁분명히	-11.3385
단과	-11.3385
▁움직임을	-11.3386
▁싱	-11.3386
▁주도로	-11.3389
▁동물의	-11.339
▁자금을	-11.339
▁기리기	-11.339
▁일시	-11.3393
▁역임하고	-11.3397
▁주사	-11.3398
▁김창	-11.3398
▁돼	-11.3398
▁국내외	-11.3398
▁용도	-11.3399
▁고분	-11.3399
▁고소	-11.34
▁요청을	-11.3401
▁고체	-11.3402
▁아직까지	-11.3403
統	-11.3404
▁유래된	-11.3405
▁폭행	-11.3405
▁탐구	-11.3405
▁띤다	-11.3406
▁험	-11.3407
▁수상한	-11.3411
▁보니	-11.3411
▁장군이	-11.3411
▁많으며	-11.3414
▁낮아	-11.3414
▁서민	-11.3415
▁구할	-11.3415
재판소	-11.3415
▁팀으로	-11.3415
▁관광객	-11.3417
학과를	-11.3418
▁통증	-11.3418
ness	-11.3418
▁유소년	-11.3418
т	-11.3418
▁담아	-11.3421
▁껍질	-11.3423
서로	-11.3424
▁평균자책점	-11.3425
꼴	-11.3425
▁자격으로	-11.3425
크라	-11.3426
▁신설되었다	-11.3426
예를	-11.3427
비에	-11.3428
▁색을	-11.3428
▁왕은	-11.3429
▁재선	-11.343
▁과거에는	-11.3431
que	-11.3431
▁미션	-11.3431
:0	-11.3431
▁세속	-11.3432
▁아니라고	-11.3432
현이	-11.3433
그램	-11.3433
헤드	-11.3436
▁승강장이	-11.3436
▁측의	-11.3438
미스	-11.3438
소방서	-11.3438
Con	-11.3441
▁구분된다	-11.3442
▁밀란	-11.3442
▁창업	-11.3443
▁응시	-11.3444
등으로	-11.3444
Ar	-11.3446
▁전자기	-11.3446
▁쏟아	-11.3447
팝	-11.3448
▁방식이다	-11.345
생명	-11.345
▁오고	-11.3451
콕	-11.3451
▁의회의	-11.3454
頭	-11.3454
딜	-11.3454
▁알바	-11.3456
▁부분으로	-11.3456
안이	-11.3456
▁엔딩	-11.3457
▁심의	-11.3457
니크	-11.3457
▁철회	-11.3458
▁애칭	-11.3459
▁중에서는	-11.346
미치	-11.346
▁최악의	-11.3461
싸	-11.3462
▁우승한	-11.3462
▁헤르	-11.3463
키는	-11.3463
▁엄격한	-11.3464
명이었다	-11.3465
▁쇼와	-11.3465
▁비단	-11.3467
▁적대	-11.3468
궤도	-11.3469
▁유동	-11.3471
▁모친	-11.3471
▁감행	-11.3471
▁고장	-11.3475
▁가져왔다	-11.3476
▁상소	-11.3478
▁대표이사	-11.3479
영국	-11.3481
▁정한	-11.3482
통합	-11.3482
▁호출	-11.3482
▁설명했다	-11.3482
(2007	-11.3483
▁함으로써	-11.3484
▁NC	-11.3484
▁런던에서	-11.3485
▁퀴	-11.3486
▁기갑	-11.3487
▁하락	-11.3491
▁아야	-11.3492
▁아이스	-11.3494
로우	-11.3495
▁적지	-11.3495
▁연수	-11.3495
?)	-11.3496
▁조달	-11.3496
▁날씨	-11.3496
▁개종	-11.3497
▁탤런트	-11.3497
▁속도는	-11.3498
▁버전이	-11.3499
▁우라	-11.35
륨	-11.3501
▁옳	-11.3501
▁도카이	-11.3505
▁베니	-11.3505
▁이성계	-11.3505
▁휴스턴	-11.3506
▁지냈고	-11.3508
▁암시	-11.3508
▁훈장	-11.3509
▁la	-11.351
禪	-11.3511
▁페이스	-11.3512
▁표방	-11.3515
▁물의	-11.3516
건축	-11.3517
옌	-11.3521
▁정교	-11.3521
▁뒷면	-11.3522
세기부터	-11.3523
▁학업	-11.3525
률이	-11.3526
▁앤드	-11.3526
▁신념	-11.3528
▁따온	-11.3528
▁강남구	-11.353
재를	-11.3531
▁적혀	-11.3531
印	-11.3533
▁킨	-11.3533
빌리	-11.3535
▁바깥쪽	-11.3535
▁뇌물	-11.3536
개월간	-11.3537
▁비평	-11.3538
▁가축	-11.3538
▁극동	-11.3539
▁경신	-11.354
▁정전	-11.3541
▁피로	-11.3544
▁클레	-11.3545
ney	-11.3546
tur	-11.3547
ü	-11.3547
▁딸로	-11.3547
▁반지름	-11.3548
사전	-11.3548
▁향하는	-11.3549
▁표면에	-11.3549
▁용산	-11.355
▁맥주	-11.3551
▁드물게	-11.3551
시리즈	-11.3552
▁캐시	-11.3555
佐	-11.3555
▁설치한	-11.3555
▁쓰여	-11.3555
례를	-11.3556
▁도루	-11.3556
▁진행되고	-11.3556
▁회수	-11.3556
즈가	-11.3557
ID	-11.3558
▁플래시	-11.3558
▁외의	-11.3558
▁사용자들	-11.3559
장이다	-11.3559
▁몬스터	-11.3559
▁앨범의	-11.3559
▁별들	-11.3559
▁우유	-11.356
▁진출을	-11.356
▁쓰촨	-11.3562
▁소모	-11.3564
▁결함	-11.3566
▁흐르	-11.3567
자본	-11.3567
위원회는	-11.3568
▁장면을	-11.3569
▁머무르	-11.3569
▁pro	-11.3573
▁불리고	-11.3573
▁노동조합	-11.3575
▁라오스	-11.3576
▁게스트	-11.3576
▁케네디	-11.3577
▁결혼하였다	-11.3577
▁아제르바이잔	-11.3577
법칙	-11.3581
▁하단	-11.3583
▁비전	-11.3583
▁종은	-11.3583
▁던지	-11.3584
▁꼭짓점	-11.3584
▁키우	-11.3584
▁오렌지	-11.3586
관찰사	-11.3587
티브	-11.3588
▁제안을	-11.359
▁친선	-11.3591
캡	-11.3591
▁신도	-11.3594
▁빌라	-11.3595
▁나올	-11.3595
▁선정한	-11.3596
국에	-11.3598
▁접하며	-11.3598
▁광물	-11.3599
▁대승	-11.3601
▁빨간색	-11.3601
하마	-11.3602
▁누르	-11.3603
▁설도	-11.3605
識	-11.3606
▁후보를	-11.3606
▁필수	-11.361
▁신학교	-11.3612
伯	-11.3613
▁로열	-11.3614
▁복소수	-11.3616
툴	-11.3616
▁3·1	-11.3616
타가	-11.3617
▁침투	-11.3617
▁상상	-11.3618
▁의원들	-11.3619
▁내부에서	-11.3619
항은	-11.3619
▁마음이	-11.3621
▁마찬가지	-11.3621
▁살리	-11.3623
▁상해	-11.3624
▁지부	-11.3624
」(	-11.3625
▁연소	-11.3625
▁CJ	-11.3625
Pa	-11.3626
▁블라디미르	-11.3628
▁데스	-11.363
▁마을의	-11.3632
▁중독	-11.3632
▁달한다	-11.3633
것이	-11.3635
▁대통령에	-11.3636
박스	-11.3636
▁다음에	-11.3636
GA	-11.3637
베스	-11.3638
기기	-11.3638
▁추세	-11.3639
▁비판이	-11.364
땅	-11.3641
니오	-11.3641
▁형성한다	-11.3642
랩	-11.3643
▁먼지	-11.3644
▁2-1	-11.3644
-21	-11.3644
▁밝히고	-11.3644
▁원인은	-11.3646
▁기록했고	-11.3646
▁벌어졌다	-11.3646
방울	-11.3646
az	-11.3647
.<	-11.3648
▁구절	-11.3648
▁알코올	-11.365
▁어른	-11.365
▁죽인	-11.365
▁꽃은	-11.365
▁핵무기	-11.3651
▁상표	-11.3651
▁대치	-11.3651
▁자유로운	-11.3653
▁에리	-11.3653
▁갱신	-11.3654
▁탐색	-11.3656
관광	-11.3656
出	-11.3657
▁시즌이	-11.3657
▁에콰도르	-11.3657
팍	-11.3657
朱	-11.3657
▁확실히	-11.3659
▁바탕	-11.366
▁컬	-11.3661
▁부피	-11.3662
▁것인가	-11.3662
바흐	-11.3663
場	-11.3664
▁등용	-11.3665
▁시종	-11.3666
▁베어	-11.3666
▁리만	-11.3666
아가	-11.3667
▁북부의	-11.3668
▁당의	-11.3668
▁예하	-11.367
▁발견하였다	-11.3671
▁드라이버	-11.3672
척의	-11.3672
궐	-11.3674
▁차량이	-11.3674
▁이복	-11.3675
할때	-11.3675
▁넘기	-11.3676
▁축조	-11.3676
▁마그	-11.3676
▁북동쪽	-11.3676
▁체류	-11.3677
▁주가	-11.3677
▁1860	-11.3679
務	-11.3679
사업을	-11.3679
웠	-11.368
▁용도로	-11.3681
하르트	-11.3682
~18	-11.3682
▁운동은	-11.3683
▁하라	-11.3687
▁횡단	-11.3693
가며	-11.3694
갔	-11.3695
▁타이베이	-11.3696
▁생략	-11.3696
▁변화에	-11.3697
▁만족시키는	-11.3697
▁서열	-11.3697
▁것임을	-11.3699
▁옐	-11.37
절차	-11.37
▁본인의	-11.37
▁성체	-11.3701
▁이끈	-11.3704
쯔	-11.3705
▁연예인	-11.3705
ru	-11.371
▁반도체	-11.371
▁컴백	-11.3711
▁해역	-11.3711
영이	-11.3711
SE	-11.3715
▁50%	-11.3715
▁천문	-11.3716
각을	-11.3718
▁오비	-11.372
평군	-11.3722
He	-11.3725
▁음료	-11.3726
▁이경	-11.3728
▁북쪽의	-11.3731
여자중학교	-11.3732
▁카프	-11.3733
DE	-11.3735
▁김정일	-11.3736
▁오사카부	-11.3737
율을	-11.3737
▁관련한	-11.3737
▁노태우	-11.3738
▁본거지	-11.3738
산초등학교	-11.3739
▁주민들이	-11.374
▁시켜	-11.374
명령	-11.3743
층으로	-11.3744
아들	-11.3745
▁위쪽	-11.3745
▁대거	-11.3746
▁76	-11.3748
숙종	-11.3748
▁넣는	-11.3749
▁당원	-11.375
_15	-11.375
롭게	-11.375
▁넓게	-11.3751
렇	-11.3751
도리	-11.3752
▁초신성	-11.3753
▁1880	-11.3753
▁무료로	-11.3756
▁안에는	-11.3758
≫	-11.376
▁짙은	-11.376
▁지주	-11.3762
▁무늬	-11.3765
▁스파	-11.3765
▁연결된다	-11.3767
▁장군의	-11.3768
▁점성술	-11.3768
▁지나면서	-11.377
류가	-11.377
색으로	-11.377
▁평가된다	-11.377
▁한미	-11.3771
빗	-11.3771
▁거인	-11.3772
졌	-11.3773
▁폭로	-11.3774
▁획득한	-11.3778
▁폭동	-11.3778
▁시드	-11.3778
AF	-11.3779
▁취하고	-11.3779
▁기초로	-11.378
▁동치	-11.3781
界	-11.3782
郎	-11.3782
산이	-11.3783
▁대성	-11.3784
▁모두가	-11.3785
▁생겨	-11.3787
신은	-11.3787
▁저주	-11.3788
▁대두	-11.3789
碑	-11.379
리게	-11.379
흡	-11.379
고자	-11.3791
▁소매	-11.3792
▁폼	-11.3792
▁타구	-11.3793
흑	-11.3793
ug	-11.3794
▁이루며	-11.3794
▁실망	-11.3796
團	-11.3797
▁School	-11.3797
▁제네바	-11.3797
▁그렇지만	-11.3797
▁준주	-11.3798
▁테이프	-11.3798
▁하프	-11.3798
▁부설	-11.3799
EL	-11.38
▁우승자	-11.3802
▁아버지를	-11.3802
▁""	-11.3804
ν	-11.3804
▁기존에	-11.3804
▁거울	-11.3805
▁있기도	-11.3806
▁자전	-11.3806
▁위험한	-11.3806
▁보석	-11.3807
▁냉전	-11.3807
나미	-11.3807
▁Mon	-11.3807
▁차이는	-11.3807
▁누나	-11.3808
▁아홉	-11.3808
ys	-11.3808
▁전통을	-11.381
▁밴드는	-11.381
전시	-11.3811
브르	-11.3811
▁아돌프	-11.3812
▁토양	-11.3812
▁머물렀다	-11.3812
▁스코	-11.3813
▁연도	-11.3815
▁미소	-11.3816
▁무라	-11.3817
▁잡았다	-11.3818
▁만화가	-11.3818
▁터치	-11.3819
츄	-11.3819
▁홍문관	-11.3819
▁보유한	-11.382
치오	-11.382
▁팜	-11.3821
경은	-11.3821
▁개발이	-11.3821
▁원반	-11.3824
▁밖에도	-11.3824
심이	-11.3826
▁오지	-11.3827
▁남기고	-11.3827
어진	-11.3827
▁적어	-11.3827
▁알려지게	-11.3828
▁곤란	-11.3829
크가	-11.3829
▁출시한	-11.383
▁태양을	-11.383
목을	-11.3831
▁기적	-11.3832
▁용인시	-11.3832
▁일관	-11.3834
▁매니저	-11.3834
▁평범한	-11.3834
▁표기법	-11.3835
▁대통령으로	-11.3835
▁사회를	-11.3836
▁피하기	-11.3836
▁단행	-11.3839
▁두개골	-11.3842
▁미하일	-11.3842
▁상원의원	-11.3843
▁고래	-11.3843
▁전속	-11.3845
▁바뀌	-11.3845
▁주장은	-11.3845
▁단계에서	-11.3845
▁수련	-11.3846
냈고	-11.3847
▁안토니오	-11.3848
烈	-11.3849
▁도입하였다	-11.3851
校	-11.3851
▁성문	-11.3852
▁황제로	-11.3852
▁누리	-11.3853
강에서	-11.3854
▁형태이다	-11.3856
熙	-11.3856
▁챌린지	-11.3857
Bo	-11.3858
(2005	-11.3858
▁기아	-11.3859
▁쾌속	-11.3859
▁부채	-11.3859
만화	-11.3859
▁Mi	-11.386
▁군정	-11.386
었다고	-11.3862
흠	-11.3862
▁투르크	-11.3863
▁말하면	-11.3863
루가	-11.3863
▁에디	-11.3864
▁팀에서	-11.3864
▁닦	-11.3865
▁월요일	-11.3865
▁후임	-11.3866
▁개관	-11.3866
▁어항	-11.3866
▁떨어지는	-11.3867
▁단층	-11.3867
▁슈팅	-11.3869
아마	-11.387
판의	-11.387
지금의	-11.3871
▁제곱	-11.3873
▁지능	-11.3873
▁동위	-11.3876
▁매력	-11.3878
연합회	-11.3879
▁도요토미	-11.3879
▁최강	-11.3879
니우스	-11.3879
▁그리스도의	-11.388
리온	-11.3881
▁군대에	-11.3881
▁탱크	-11.3882
▁봉쇄	-11.3882
▁질문	-11.3882
▁버전의	-11.3882
▁대변	-11.3882
렸는데	-11.3884
▁프톨레마이오스	-11.3887
것을	-11.3887
▁부유한	-11.3888
▁기다리	-11.3889
▁대가	-11.389
▁동년	-11.389
▁환경을	-11.3892
▁법정동	-11.3893
愛	-11.3894
▁위나라	-11.3894
▁1871	-11.3896
▁멜로디	-11.3897
▁다운	-11.3899
화되었다	-11.39
sen	-11.39
▁이론의	-11.3901
TF	-11.3901
▁싱어송라이터	-11.3904
있었다	-11.3907
넥	-11.3909
▁흥선대원군	-11.3909
▁존재가	-11.391
▁불어	-11.391
▁줄무늬	-11.3911
▁그들에게	-11.3912
▁알려져있다	-11.3912
▁북한군	-11.3914
▁옌	-11.3914
▁표현을	-11.3915
위와	-11.3918
▁나비	-11.3919
if	-11.392
▁해당된다	-11.3921
▁공리	-11.3922
bu	-11.3922
▁트로이	-11.3922
▁게임에서	-11.3923
▁진행하고	-11.3924
▁디자인을	-11.3924
바나	-11.3927
▁건축물이다	-11.3927
▁생식	-11.3928
계로	-11.3928
지부	-11.3929
▁석탑	-11.393
▁즉위한	-11.3931
너는	-11.3931
▁난민	-11.3931
▁대학교에	-11.3934
▁...	-11.3934
▁남기	-11.3935
▁되지만	-11.3938
굿	-11.3938
▁코드를	-11.3939
▁희곡	-11.3939
지기도	-11.3939
지점	-11.3939
▁메시지를	-11.394
▁차량은	-11.394
▁호랑이	-11.3941
▁주민들은	-11.3942
▁남원	-11.3945
▁수학적	-11.3945
▁이유가	-11.3946
소로	-11.3947
▁체중	-11.3948
▁시골	-11.3949
▁네팔	-11.3949
▁삼촌	-11.395
강의	-11.3953
깃	-11.3953
▁재능을	-11.3954
▁스스로를	-11.3955
▁굿	-11.3955
▁충성	-11.3955
▁거주지	-11.3955
▁방사선	-11.3956
▁초연	-11.3957
차트	-11.3958
▁필리프	-11.3959
▁정의한다	-11.3959
장사	-11.3959
터는	-11.396
▁가벼운	-11.3962
오가	-11.3962
▁협상을	-11.3964
eg	-11.3967
▁끓	-11.3967
▁관람	-11.3968
▁된다는	-11.3969
▁고시	-11.3969
豊	-11.3969
▁금요일	-11.3971
▁Ha	-11.3971
▁선을	-11.3972
년대까지	-11.3975
▁뒷받침	-11.3977
▁대패	-11.3977
▁이루어지지	-11.398
▁개념으로	-11.3983
공이	-11.3984
▁역사적인	-11.3985
▁잡혀	-11.3986
▁고양시	-11.3988
▁어머니가	-11.3989
▁마음에	-11.399
▁요구를	-11.3991
ι	-11.3992
물은	-11.3993
▁전체적인	-11.3993
▁조인	-11.3994
▁동학	-11.3994
▁동문	-11.3994
이하	-11.3996
▁남서부	-11.3996
~2	-11.3996
▁남서쪽	-11.3997
姜	-11.3999
工	-11.3999
국인	-11.3999
▁기각	-11.4
▁만일	-11.4001
▁반격	-11.4002
▁도와주	-11.4003
MB	-11.4005
▁먹을	-11.4006
▁이때부터	-11.4006
수단	-11.4008
▁101	-11.4009
▁묶어	-11.401
▁햄	-11.4011
▁이진	-11.4011
프의	-11.4011
사르	-11.4014
▁주오	-11.4014
▁96	-11.4015
▁한국방송공사	-11.4015
▁모서리	-11.4016
▁철도가	-11.4017
▁안티	-11.4018
▁건담	-11.4018
▁시선	-11.4018
키타	-11.4019
DP	-11.402
▁증진	-11.4021
▁장례식	-11.4021
▁동일하다	-11.4022
▁기사를	-11.4022
▁쳐들어	-11.4023
▁깃	-11.4023
▁동사	-11.4023
▁광학	-11.4023
▁무소속	-11.4024
▁일이다	-11.4025
▁전체에	-11.4025
▁더이상	-11.4025
▁사망하자	-11.4026
▁가군	-11.4026
▁시위대	-11.4028
▁이집트의	-11.4029
▁딘	-11.4029
_14	-11.4032
▁지방을	-11.4032
▁좌측	-11.4032
▁전반에	-11.4033
▁준수	-11.4034
▁품종	-11.4034
▁바실리	-11.4035
▁본사를	-11.4035
났	-11.4037
▁그루	-11.4037
車	-11.4038
시카	-11.4038
▁다항식	-11.4038
▁몸이	-11.4039
▁섬이다	-11.4039
▁학계	-11.404
▁작품에서	-11.404
툼	-11.4041
카쓰	-11.4042
▁아시안컵	-11.4042
▁딜	-11.4043
~4	-11.4045
술을	-11.4045
關	-11.4045
▁가을에	-11.4048
쿠니	-11.405
공동	-11.4051
것으로	-11.4051
▁문서를	-11.4052
▁일대를	-11.4052
▁레닌	-11.4052
▁깃발	-11.4052
▁왕권	-11.4054
▁스트레스	-11.4054
▁Sp	-11.4055
마크	-11.4055
주택	-11.4056
▁미키	-11.4056
▁별칭	-11.4056
▁드래프트에서	-11.4056
▁릴리	-11.4058
將軍	-11.406
▁기초를	-11.406
造	-11.406
▁북서쪽으로	-11.4065
적이지	-11.4067
해군	-11.4067
▁자이	-11.4067
▁유진	-11.4068
냉	-11.4068
▁싶은	-11.4069
▁중복	-11.4069
사이트	-11.4071
▁77	-11.4073
-11	-11.4075
▁로그	-11.4076
▁사헌부	-11.4076
▁문구	-11.4076
▁사카이	-11.408
▁비틀즈	-11.4081
▁통보	-11.4082
친다	-11.4082
▁처음부터	-11.4082
▁즐겨	-11.4083
시키며	-11.4084
▁넓	-11.4085
▁그레	-11.4086
lic	-11.4088
편이	-11.4089
▁받침	-11.409
OL	-11.4091
▁지리	-11.4091
▁희생자	-11.4091
스트리	-11.4092
▁아카데미상	-11.4092
tro	-11.4093
▁취약	-11.4093
▁스마트	-11.4093
CS	-11.4094
편에	-11.4095
line	-11.4097
▁설명하는	-11.4098
▁고개	-11.4098
▁효종	-11.4099
▁결혼하여	-11.4101
cal	-11.4103
질서	-11.4105
▁적자	-11.4105
▁데모	-11.4107
▁한층	-11.4107
▁카리브	-11.4107
ans	-11.4108
▁IS	-11.4108
▁기저	-11.4109
시나	-11.4109
▁지키는	-11.4109
▁광저우	-11.4109
현을	-11.411
파일	-11.4113
질량	-11.4114
▁1800	-11.4114
▁부분의	-11.4115
▁단축	-11.4115
▁매달	-11.4118
▁시체	-11.412
▁보호를	-11.4122
실점	-11.4122
사나	-11.4122
▁서자	-11.4122
및	-11.4123
공파	-11.4124
끔	-11.4124
▁경계로	-11.4125
▁분명	-11.4125
▁기증	-11.4126
▁우주의	-11.4126
▁쌓은	-11.4126
▁신축	-11.4128
▁무어	-11.4128
判	-11.4128
마력	-11.4129
▁뚜렷한	-11.4131
▁손으로	-11.4131
▁추증	-11.4132
ax	-11.4132
엇	-11.4134
▁아버지인	-11.4134
▁이남	-11.4135
▁마블	-11.4136
▁조약에	-11.4136
▁등극	-11.4137
▁않았	-11.4138
Me	-11.4139
▁삼국시대	-11.4141
▁공격에	-11.4143
▁워터	-11.4143
▁종의	-11.4143
LA	-11.4144
草	-11.4144
榮	-11.4145
▁데이비스	-11.4145
▁카우	-11.4146
▁고고학	-11.4146
▁정신을	-11.4146
▁크리스티안	-11.4147
▁패널	-11.4147
▁조언	-11.4147
▁파란색	-11.4148
▁후속작	-11.4148
▁텔레	-11.4149
▁과정이	-11.415
▁신하	-11.415
▁알루미늄	-11.4152
現	-11.4152
勝	-11.4152
졌던	-11.4156
점의	-11.4156
초의	-11.4156
pl	-11.4156
▁가라	-11.4158
Don	-11.4159
▁함선	-11.4159
sta	-11.4159
▁부회장	-11.4165
▁살려	-11.4165
▁교원	-11.4166
▁상법	-11.4168
▁경찰서	-11.4169
▁것들이	-11.417
▁3,000	-11.4171
▁서유럽	-11.4173
▁복음	-11.4173
▁바뀌어	-11.4174
器	-11.4175
보도	-11.4178
▁되어있다	-11.4178
푸르	-11.418
▁행사를	-11.4181
▁전력을	-11.4181
▁색채	-11.4182
▁과도	-11.4182
리로	-11.4182
hy	-11.4183
▁물어	-11.4183
▁팀과	-11.4183
중대	-11.4186
▁선출된	-11.4189
▁사살	-11.419
▁땄다	-11.4191
▁퀘벡	-11.4191
▁아폴로	-11.4191
▁선배	-11.4191
▁설립되었으며	-11.4191
▁시대부터	-11.4192
▁봉건	-11.4192
▁만료	-11.4193
▁제도가	-11.4194
ise	-11.4195
Br	-11.4195
▁일어났	-11.4196
슈퍼	-11.4196
여개	-11.4197
▁오이	-11.4197
▁질서	-11.4197
▁건설되었다	-11.4197
관과	-11.4198
▁관리를	-11.4199
스피	-11.4199
▁충청도	-11.4202
▁가지가	-11.4203
▁값이	-11.4205
▁Bu	-11.4205
ere	-11.4207
만장	-11.4211
타를	-11.4211
▁읽는	-11.4214
부원군	-11.4218
▁회의를	-11.4218
▁외관	-11.4219
▁짓는	-11.4219
▁매개	-11.422
▁진도	-11.4221
▁뒤쪽	-11.4222
▁취임하였다	-11.4224
▁방문한	-11.4225
▁전문가들	-11.4226
▁유지하는	-11.4229
▁붙여진	-11.423
획	-11.4231
▁받았지만	-11.4231
▁시위를	-11.4231
▁패한	-11.4233
통을	-11.4235
▁나가는	-11.4235
▁나뉘	-11.4236
▁영동	-11.4236
▁높게	-11.4236
▁레바논	-11.4237
▁헤비	-11.4239
▁이론에	-11.424
▁출토	-11.424
▁올랐고	-11.4241
▁1889	-11.4242
▁거처	-11.4242
▁문제의	-11.4243
▁퇴임	-11.4243
▁손권	-11.4243
▁막는	-11.4244
▁매카트니	-11.4245
▁북극	-11.4245
▁화제	-11.4247
▁방안	-11.4247
▁부를	-11.4247
ple	-11.4251
▁실패한	-11.4251
▁하차	-11.4252
시대의	-11.4252
橋	-11.4253
▁간토	-11.4254
Li	-11.4256
령으로	-11.4256
▁걸리	-11.4256
▁단절	-11.4256
▁비율이	-11.4257
AD	-11.4258
니의	-11.4259
植	-11.4261
▁인민군	-11.4261
▁필터	-11.4261
▁Car	-11.4261
▁차이로	-11.4263
▁병으로	-11.4264
▁백제의	-11.4267
권에서	-11.4267
▁이를테면	-11.4268
▁파일을	-11.427
▁교통국	-11.4271
▁소속팀	-11.4271
▁스틸	-11.4272
▁1-0	-11.4275
▁표현하는	-11.4276
▁타격을	-11.4276
▁독립적인	-11.4277
su	-11.4277
혹은	-11.4277
▁음악적	-11.4277
▁성우이다	-11.4277
▁공용어	-11.4279
지역에	-11.428
▁회장을	-11.428
▁노르웨이의	-11.4281
▁서신	-11.4282
▁드라	-11.4283
▁꺼	-11.4286
▁끊임없이	-11.4287
헝가리	-11.4287
▁Br	-11.4288
뜨리	-11.4289
▁케빈	-11.429
▁견해를	-11.429
▁Go	-11.4291
▁박스	-11.4291
意	-11.4292
▁퇴역	-11.4292
商	-11.4292
▁볼리비아	-11.4292
▁발칸	-11.4292
▁몫	-11.4292
▁파라과이	-11.4293
▁헌법재판소	-11.4293
▁직면	-11.4293
▁프란츠	-11.4293
▁시기를	-11.4294
▁고구려의	-11.4294
▁비밀리에	-11.4296
▁무대를	-11.4296
위성	-11.4297
해양	-11.4297
▁임관	-11.4298
▁술을	-11.4299
▁확	-11.4299
▁별은	-11.4301
▁사르	-11.4301
했는지	-11.4302
▁장기간	-11.4302
▁올리고	-11.4302
rand	-11.4302
▁갈등을	-11.4303
바리	-11.4303
▁공부를	-11.4304
▁성남시	-11.4304
▁섬은	-11.4304
층을	-11.4306
▁경찰에	-11.4306
되나	-11.4306
▁학자들	-11.4307
鐵	-11.4307
解	-11.4307
▁동성애자	-11.4308
▁연구원	-11.431
▁특집	-11.4311
▁역학	-11.4312
▁환경에	-11.4313
주의는	-11.4313
▁문자를	-11.4314
군에게	-11.4316
무대	-11.4316
▁임명된	-11.4319
▁위치는	-11.432
▁소프트	-11.4321
湖	-11.4323
夏	-11.4323
▁연극배우	-11.4324
▁세션	-11.4324
▁래퍼	-11.4327
스틴	-11.4327
리얼	-11.4327
토미	-11.4328
▁충전	-11.4329
▁머리에	-11.433
▁싸워	-11.4332
▁언급한	-11.4333
내용	-11.4335
▁시장을	-11.4336
▁완벽한	-11.4336
▁이룬	-11.4336
경에	-11.4337
▁안드레	-11.4337
▁달이	-11.4338
고도	-11.4338
▁패배를	-11.4338
ara	-11.4339
끄	-11.434
▁유학을	-11.434
▁생산량	-11.434
보병사단	-11.4341
▁것만	-11.4342
▁북동쪽으로	-11.4343
▁한국시리즈	-11.4343
토가	-11.4345
▁67	-11.4348
▁케냐	-11.435
▁살았던	-11.435
▁결정하였다	-11.435
▁두께	-11.435
▁뽑아	-11.435
▁가능성	-11.4351
▁불과하다	-11.4352
▁업계	-11.4353
▁존재할	-11.4353
▁예술가	-11.4354
강을	-11.4354
▁결선	-11.4354
▁룩셈부르크	-11.4354
▁투표를	-11.4355
▁효력	-11.4355
▁종속	-11.4356
▁동정	-11.4356
▁전적	-11.4356
왕을	-11.4357
My	-11.4357
▁전략적	-11.4358
대회에서	-11.436
arch	-11.436
。	-11.4361
▁조세	-11.4363
푸아	-11.4366
민은	-11.4366
▁대가로	-11.4367
▁그레고리오	-11.4367
▁비롯	-11.4368
氣	-11.437
▁바르샤바	-11.437
▁성도	-11.4371
▁목표는	-11.4371
▁오른손	-11.4372
▁흔한	-11.4372
▁담당했다	-11.4373
뱅	-11.4374
able	-11.4374
편을	-11.4375
▁램	-11.4376
▁≪	-11.4377
어도	-11.4378
Mar	-11.4379
우지	-11.4379
▁영천	-11.4381
▁승자	-11.4382
▁아무도	-11.4382
▁기록으로	-11.4382
총회	-11.4382
▁취업	-11.4383
▁창고	-11.4383
▁질량이	-11.4384
▁물자	-11.4386
▁이야기는	-11.4387
(2001	-11.4387
▁방사성	-11.4388
▁수색	-11.4389
▁하야	-11.4391
산에	-11.4392
였을	-11.4393
케라톱스	-11.4393
산으로	-11.4394
▁본관	-11.4395
한테	-11.4396
▁대변인	-11.4398
~8	-11.4399
▁객관적	-11.4401
▁평안북도	-11.4402
IT	-11.4402
▁올라간다	-11.4403
▁국제적인	-11.4404
▁1870	-11.4405
▁원로원	-11.4406
과학기술	-11.4406
▁통용	-11.4408
▁플라스틱	-11.441
▁출신인	-11.441
전과	-11.441
▁한성	-11.4411
히트	-11.4411
▁극한	-11.4411
▁계획이다	-11.4414
곡으로	-11.4416
▁누가	-11.4416
▁그후	-11.4417
▁타인	-11.4418
▁재무	-11.4418
▁리틀	-11.4419
▁단어는	-11.4423
▁이병	-11.4423
▁파산	-11.4423
▁제치고	-11.4424
▁품고	-11.4425
ET	-11.4425
▁바리	-11.4426
▁들어갈	-11.4426
▁수단으로	-11.4426
▁예배	-11.4427
펠트	-11.4427
▁인터내셔널	-11.4427
▁열린다	-11.4427
모든	-11.443
▁교정	-11.4431
▁산출	-11.4434
▁프로게이머	-11.4436
day	-11.4437
▁로이	-11.4438
▁벌어	-11.4439
▁가져온	-11.4439
▁이어진	-11.4441
ä	-11.4441
▁그밖에	-11.4442
▁중도	-11.4442
▁DS	-11.4444
▁청동	-11.4445
▁성명	-11.4445
▁사람도	-11.4446
▁나열	-11.4448
이게	-11.4449
▁맞붙	-11.445
▁비석	-11.445
소득	-11.4451
올라	-11.4451
▁키보드	-11.4452
판으로	-11.4453
▁자선	-11.4454
▁정계	-11.4454
모로	-11.4456
▁여성이	-11.4457
네이션	-11.4457
참모	-11.4457
▁각색	-11.4459
관련	-11.4459
▁압력을	-11.4459
Be	-11.4459
▁엔진은	-11.446
▁관장	-11.4461
low	-11.4462
없	-11.4462
▁방면으로	-11.4464
▁前	-11.4464
Th	-11.4464
▁다녔다	-11.4465
주의와	-11.4468
▁드러났다	-11.447
▁발견되지	-11.447
car	-11.4472
▁성운	-11.4472
삼국사기	-11.4472
정사	-11.4473
▁잡은	-11.4473
▁운행한다	-11.4476
▁취미	-11.4476
▁윤리	-11.4478
▁Lo	-11.4478
여행	-11.4479
악기	-11.448
정책을	-11.4482
▁얼굴을	-11.4482
▁투르	-11.4483
▁발언을	-11.4484
▁근무했다	-11.4485
▁그것들	-11.4486
▁프로젝트를	-11.4486
▁뒤이어	-11.4486
▁1885	-11.4487
▁센고쿠	-11.4489
▁동성애	-11.449
▁아담	-11.4491
▁프라하	-11.4494
▁20%	-11.4495
LI	-11.4495
가족	-11.4495
▁물질의	-11.4496
▁번성	-11.4498
▁동아	-11.4498
▁뒤에도	-11.4501
둑	-11.4502
▁전형	-11.4503
▁연고지	-11.4504
遠	-11.4505
晉	-11.4505
▁최대풍속	-11.4505
▁평안남도	-11.4505
▁새겨진	-11.4506
▁아일랜드의	-11.4507
(2015	-11.4508
라우	-11.4508
▁목소리를	-11.4508
▁원본	-11.4509
▁모시	-11.4509
▁인물을	-11.4509
▁독서	-11.4511
墓	-11.4513
▁남동생	-11.4513
▁흔들	-11.4513
▁축성	-11.4514
▁초나라	-11.4515
▁구도	-11.4515
▁짐작	-11.4516
~7	-11.4516
포켓몬스터	-11.4517
▁요코	-11.4517
론에서	-11.4518
▁중앙부	-11.4519
▁자료가	-11.452
▁저기압	-11.4521
▁with	-11.4521
▁5,000	-11.4523
주에서	-11.4523
▁주장하며	-11.4524
▁본문	-11.4525
퐁	-11.4527
원군	-11.4528
儀	-11.4529
▁영향이	-11.4529
vo	-11.453
초를	-11.453
▁워크	-11.4531
운수	-11.4533
▁김병	-11.4533
청년	-11.4533
▁입원	-11.4533
▁리베	-11.4536
▁차량을	-11.4536
▁해마다	-11.4536
▁아케이드	-11.4537
▁자신들이	-11.4537
▁다케다	-11.454
▁가열	-11.454
선교	-11.4541
▁선생의	-11.4541
ail	-11.4542
▁프라이	-11.4542
▁레온	-11.4542
왔는데	-11.4543
▁안치	-11.4543
북면	-11.4543
▁헬륨	-11.4545
▁아래는	-11.4546
시켰으며	-11.4546
▁확실	-11.4546
니어	-11.455
▁예선에서	-11.455
교육을	-11.4551
텀	-11.4552
라트	-11.4553
▁2.5	-11.4554
▁거북	-11.4554
▁스즈키	-11.4555
▁무성	-11.4555
▁오피스	-11.4556
영역	-11.4558
▁했을	-11.4558
▁유닉스	-11.4558
▁워드	-11.456
시에는	-11.456
▁나란히	-11.4561
▁그러다가	-11.4562
자들과	-11.4563
▁방화	-11.4565
▁교과서	-11.4565
▁Sch	-11.4565
▁보인	-11.4566
태양	-11.4567
▁낳은	-11.4569
스트로	-11.4569
▁개화	-11.4572
잡지	-11.4575
▁때에도	-11.4576
益	-11.4577
당과	-11.4577
air	-11.4577
순환	-11.4577
▁소송을	-11.4577
▁더욱이	-11.4581
▁아래쪽	-11.4581
▁언어의	-11.4581
▁구멍	-11.4583
여명	-11.4583
사무	-11.4583
티노	-11.4584
▁일부분	-11.4586
경이	-11.4588
▁새겨	-11.4588
▁버리	-11.4588
역에	-11.4589
▁미즈	-11.459
▁보게	-11.4592
▁지질	-11.4592
▁확실한	-11.4592
▁각지에서	-11.4593
훼	-11.4593
▁분출	-11.4593
▁숙부	-11.4593
▁남미	-11.4594
▁남작	-11.4594
▁레일	-11.4594
▁수성	-11.4594
▁상자	-11.4594
▁So	-11.4594
▁결정한다	-11.4595
▁벽돌	-11.4597
▁KIA	-11.4597
비와	-11.4597
▁쫓아	-11.4597
▁제목의	-11.4598
▁안으로	-11.4599
트레	-11.46
드레	-11.46
▁조정에	-11.4601
加	-11.4601
▁생겨나	-11.4601
侍	-11.4601
▁이탈리아에서	-11.4601
▁역에	-11.4601
▁천재	-11.4602
▁쓰시마	-11.4604
▁산하의	-11.4605
▁발급	-11.4607
▁미라	-11.4607
▁기술은	-11.4608
祭	-11.4609
▁윤보선	-11.4609
붕	-11.4609
▁고려의	-11.461
▁그릇	-11.4611
▁온도가	-11.4611
▁여주	-11.4612
▁학문을	-11.4613
▁역사에	-11.4614
▁주주	-11.4615
▁부근에서	-11.4615
▁어뢰	-11.4615
터가	-11.4616
к	-11.4617
▁갈수록	-11.4619
플러	-11.4619
▁결정하는	-11.462
그는	-11.4621
▁MP	-11.4621
▁요정	-11.4622
▁하남	-11.4623
▁평가했다	-11.4623
터를	-11.4626
▁피고인	-11.4626
▁유연	-11.4629
▁원천	-11.463
▁여성들	-11.463
▁사카	-11.4631
▁나머지는	-11.4631
목적	-11.4631
▁해결하기	-11.4631
▁마하	-11.4633
▁고유의	-11.4633
魏	-11.4633
竹	-11.4633
▁동생인	-11.4634
▁기금	-11.4634
▁시중	-11.4635
▁곁	-11.4636
▁괴물	-11.4637
▁맡기	-11.4638
▁다니는	-11.464
유지	-11.464
▁호응	-11.4641
▁도입된	-11.4641
▁콜로라도	-11.4641
▁달걀	-11.4641
▁관직에	-11.4641
▁레이스	-11.4642
▁북아프리카	-11.4642
▁독일이	-11.4643
ood	-11.4644
▁유체	-11.4644
▁택시	-11.4644
▁휴대	-11.4646
▁욕구	-11.4648
로그	-11.4648
▁분수	-11.4649
입자	-11.4649
▁베리	-11.4651
▁에버	-11.4652
▁Cr	-11.4652
비오	-11.4653
▁공민왕	-11.4654
▁곳의	-11.4656
▁노트	-11.4658
▁우르	-11.466
▁조별리그	-11.466
▁일반적	-11.4661
▁선과	-11.4662
▁추산	-11.4662
율은	-11.4665
▁기차	-11.4665
곡이	-11.4665
승지	-11.4666
즈미	-11.4666
▁진출한	-11.4666
▁박탈	-11.4667
▁카트	-11.4667
우의	-11.4668
EP	-11.4669
▁팔리	-11.4669
라와	-11.467
▁구호	-11.4671
▁손님	-11.4671
~10	-11.4672
▁복음서	-11.4675
▁경기장이다	-11.4676
▁그곳에	-11.4676
▁수원시	-11.4676
▁프로그램에	-11.4677
▁■	-11.468
▁출신이며	-11.4681
보가	-11.4682
공의	-11.4683
▁대표적으로	-11.4684
▁EC	-11.4685
▁히어로즈	-11.4688
uk	-11.4689
▁프로덕션	-11.4689
起	-11.4689
▁킬로미터	-11.4691
▁이관	-11.4692
▁딱	-11.4692
▁해를	-11.4692
千	-11.4698
▁그렸다	-11.4701
▁연고	-11.4703
라드	-11.4703
기둥	-11.4705
Cl	-11.4706
▁비치	-11.4706
▁일으킬	-11.4706
▁케임브리지	-11.4706
▁증후군	-11.4707
교구	-11.4707
▁유대교	-11.4708
▁설치하고	-11.4708
소녀	-11.471
▁시정	-11.471
▁요소들	-11.471
tri	-11.4712
분자	-11.4715
고등보통학교	-11.4715
ino	-11.4715
▁설치하여	-11.4717
▁사상자	-11.4718
▁동행	-11.4718
질환	-11.4719
▁전역에서	-11.4719
줬다	-11.4719
▁발을	-11.4719
▁미쳤다	-11.472
▁주역	-11.4721
리티	-11.4721
▁대신해	-11.4723
(2004	-11.4723
▁비율은	-11.4724
EM	-11.4726
▁갖지	-11.4726
▁제나라	-11.4727
▁보편	-11.4729
아래	-11.4729
부리그	-11.473
▁투수로	-11.473
▁옮긴	-11.473
▁비공식	-11.473
티는	-11.4731
씨를	-11.4731
▁전당	-11.4732
▁인자	-11.4733
▁트리플	-11.4734
▁잘라	-11.4734
▁수확	-11.4735
▁시공	-11.4735
▁과장	-11.4735
vel	-11.4736
▁천문대	-11.4736
렴	-11.4737
▁와카	-11.4737
▁보헤미아	-11.4739
▁정리한	-11.4739
▁꽃이	-11.4739
▁남동쪽으로	-11.474
▁86	-11.474
▁입주	-11.474
▁73	-11.474
▁니콜라이	-11.4741
▁점령한	-11.4742
▁왕국을	-11.4744
▁가져오	-11.4746
인권	-11.4746
▁물려	-11.4747
되므로	-11.4748
포인트	-11.4749
▁중요성	-11.4749
▁청색	-11.475
▁군인들	-11.4751
▁보호하기	-11.4752
▁대응하는	-11.4752
시타	-11.4752
▁알지	-11.4753
문학상	-11.4755
값을	-11.4755
▁한족	-11.4755
▁동참	-11.4756
▁지선	-11.4757
Se	-11.4757
▁측에	-11.4758
▁요원	-11.476
▁차지하며	-11.4761
소에	-11.4761
親	-11.4762
▁다양성	-11.4763
천면	-11.4763
티드	-11.4764
▁궁중	-11.4765
씨와	-11.4766
세기까지	-11.4767
류와	-11.4767
▁경연	-11.4768
▁방법에	-11.4769
▁도덕적	-11.4769
▁전역에	-11.4769
val	-11.4771
領	-11.4771
▁이조판서	-11.4771
▁아이디얼	-11.4772
▁프로그램으로	-11.4772
▁감안	-11.4773
▁상행	-11.4773
(2016	-11.4774
▁붙었다	-11.4775
수준	-11.4777
▁Pe	-11.4778
▁불꽃	-11.4779
▁동조	-11.4779
▁의미는	-11.4779
▁에미	-11.4781
전략	-11.4782
수학	-11.4783
▁낮다	-11.4783
▁고쿠	-11.4783
▁딸이다	-11.4783
사기	-11.4785
ith	-11.4786
▁수료	-11.4786
▁di	-11.4786
축제	-11.4788
▁신원	-11.4788
▁체력	-11.4789
▁외국어	-11.4789
▁무너지	-11.4789
▁후작	-11.4791
▁채소	-11.4791
▁구형	-11.4792
▁붙였다	-11.4793
▁위키	-11.4794
위원회가	-11.4795
▁is	-11.4797
▁다발	-11.4797
▁진사	-11.4797
ero	-11.4801
▁제국을	-11.4801
▁의미하며	-11.4801
▁공감	-11.4801
▁신정	-11.4802
▁초월	-11.4803
소와	-11.4803
BL	-11.4803
伊	-11.4804
ا	-11.4804
인물	-11.4804
▁당연히	-11.4806
▁프레스	-11.4806
▁힌두교	-11.4807
▁구와	-11.4808
▁의결	-11.4808
▁고등학교를	-11.4809
뚝	-11.4809
▁진행되는	-11.4809
▁순조	-11.4809
▁알렉산드리아	-11.4812
▁박헌영	-11.4812
냈	-11.4815
▁하마	-11.4815
▁각도	-11.4816
자형	-11.4819
▁주위를	-11.482
노동자	-11.4827
▁중위	-11.4827
끈	-11.4827
▁자작	-11.4828
귤	-11.4829
▁학회	-11.4829
▁레슬링	-11.483
작곡	-11.483
▁69	-11.483
▁실재	-11.483
세손	-11.4832
호선과	-11.4832
▁특색	-11.4833
▁시상	-11.4834
▁실시하고	-11.4834
▁나아	-11.4834
▁분량	-11.4835
▁헌신	-11.4835
시대에	-11.4837
언론	-11.4838
해졌고	-11.4838
ham	-11.4838
▁세기	-11.484
▁기병대	-11.4841
▁기술의	-11.4841
▁박영	-11.4843
▁후반기	-11.4845
▁실권	-11.4848
▁개발하고	-11.4848
▁All	-11.485
▁작업에	-11.4851
켜	-11.4852
▁떨어졌다	-11.4853
▁시뮬레이션	-11.4853
▁다이아몬드	-11.4854
ash	-11.4855
▁세워져	-11.4858
▁피해가	-11.4858
ink	-11.4858
▁민족의	-11.4859
▁선발로	-11.486
▁할리우드	-11.4862
마타	-11.4862
▁마을에	-11.4863
▁보리	-11.4863
▁목을	-11.4863
▁중앙아시아	-11.4864
▁불가능한	-11.4864
ini	-11.4866
아트	-11.4866
▁제국과	-11.487
▁매치	-11.487
▁돌입	-11.487
▁같은해	-11.4871
▁함부르크	-11.4871
▁펑	-11.4872
▁계기	-11.4875
▁일파	-11.4876
이든	-11.4877
▁아인슈타인	-11.4878
▁가네	-11.4879
▁맞고	-11.4879
학사	-11.488
곰	-11.488
▁교양	-11.4883
▁물품	-11.4885
스테르	-11.4885
▁매매	-11.4886
異	-11.4887
▁함정	-11.4889
케르	-11.4889
wa	-11.489
시경	-11.4891
자기	-11.4892
mar	-11.4893
▁어머니의	-11.4894
_16	-11.4894
▁시립	-11.4894
엔진	-11.4897
▁울리	-11.4897
▁짝	-11.49
▁시리즈를	-11.49
bl	-11.4901
▁직경	-11.4901
▁위헌	-11.4902
▁고통을	-11.4902
▁우승팀	-11.4904
오고	-11.4904
▁공격해	-11.4904
▁군함	-11.4904
▁아라비아	-11.4904
▁단행본	-11.4905
▁개념이다	-11.4905
▁어미	-11.4906
▁한스	-11.4906
▁섞	-11.4906
체인	-11.4909
▁물건을	-11.4909
족을	-11.4911
▁생긴다	-11.4911
遺	-11.4911
건물	-11.4912
▁아스널	-11.4912
▁덮여	-11.4912
▁왕건	-11.4913
▁규범	-11.4913
▁앨범에	-11.4914
▁관광지	-11.4917
▁무죄	-11.4918
▁사용하면	-11.4919
力	-11.492
궈	-11.492
▁소식	-11.4921
aw	-11.4921
▁기고	-11.4923
▁천수	-11.4923
개소	-11.4923
▁연결되는	-11.4923
▁주축	-11.4924
회전	-11.4925
▁붉은색	-11.4926
다람쥐	-11.4927
▁서문	-11.4927
▁발원	-11.4928
ρ	-11.4928
▁남동부	-11.4929
ology	-11.4929
nes	-11.493
기자	-11.4931
▁게임으로	-11.4932
▁타원형	-11.4935
▁소생	-11.4935
▁제조업	-11.4936
▁하구	-11.4936
▁안의	-11.4936
▁약자	-11.4936
▁크리스토퍼	-11.4937
▁파이널	-11.4937
▁대도시	-11.4938
▁생물학	-11.4938
체스터	-11.4939
▁시작하였으며	-11.494
▁원장	-11.494
▁본국	-11.4943
▁상경	-11.4944
秦	-11.4945
▁대통령과	-11.4945
▁포로로	-11.4946
▁자란다	-11.4949
▁면허	-11.4949
▁남서쪽으로	-11.4949
▁리치	-11.4949
▁광양	-11.495
▁새로이	-11.495
▁제기되었다	-11.495
▁기록하면서	-11.4951
▁도시들	-11.4951
바위	-11.4951
▁1600	-11.4953
沙	-11.4953
eat	-11.4955
▁개원	-11.4955
▁고산	-11.4955
▁등재	-11.4957
않	-11.4957
픈	-11.4959
lor	-11.4961
▁견인	-11.4961
▁모노	-11.4963
▁재계약	-11.4964
쳤으며	-11.4964
▁대군	-11.4965
▁소나무	-11.4965
▁상공	-11.4966
非	-11.497
功臣	-11.497
▁스미	-11.4971
했음을	-11.4971
▁앨리스	-11.4971
▁정성	-11.4972
석과	-11.4973
▁딸이	-11.4974
▁대역	-11.4974
ode	-11.4975
농업	-11.4976
램	-11.4978
▁조선인민군	-11.4978
▁엽	-11.4978
▁함수의	-11.498
▁조반니	-11.4981
갱	-11.4982
▁똑같은	-11.4982
레이드	-11.4983
▁장덕	-11.4985
▁임명되었고	-11.4985
(9	-11.4986
아와	-11.4986
▁온갖	-11.4987
▁제국에	-11.4988
▁형성하고	-11.4989
▁민영	-11.4989
▁신도비	-11.499
▁친왕	-11.4992
▁정에	-11.4992
얄	-11.4992
▁사슬	-11.4992
고래	-11.4995
▁하느님의	-11.4995
▁차례의	-11.4996
과정을	-11.4996
▁때문이라고	-11.4996
▁둘러싸여	-11.4996
▁맺은	-11.4998
▁정권이	-11.4999
▁보내고	-11.4999
▁떨	-11.4999
종류	-11.4999
▁스위치	-11.5
▁유용	-11.5002
▁콤팩트	-11.5003
參	-11.5003
し	-11.5003
▁서재필	-11.5003
▁정치적인	-11.5003
▁줄거리	-11.5005
▁연예	-11.5006
▁본인이	-11.5007
▁말고	-11.501
▁프로듀싱	-11.5012
지역에서	-11.5013
▁의원을	-11.5014
광고	-11.5015
Col	-11.5016
▁끝날	-11.5016
▁거부하고	-11.5019
▁취임했다	-11.502
▁점령하고	-11.502
▁미시시피	-11.502
▁마라톤	-11.5021
▁공격하여	-11.5022
▁상연	-11.5022
▁은퇴하였다	-11.5023
▁들어올	-11.5024
▁런던의	-11.5024
비안	-11.5025
면과	-11.5026
處	-11.5028
톈	-11.5028
▁옥스퍼드	-11.5028
물에	-11.503
▁설명할	-11.5034
▁제재	-11.5035
레이터	-11.5035
▁이북	-11.5037
▁단어를	-11.5037
▁시상식	-11.5039
생물	-11.5039
되어있다	-11.5039
▁권총	-11.5039
▁플레이어는	-11.504
▁흉노	-11.504
form	-11.504
▁상업적	-11.5041
▁평론가	-11.5042
터미널	-11.5042
▁잡는	-11.5043
▁나타내고	-11.5044
▁넘어서	-11.5045
▁포기하고	-11.5047
▁매수	-11.5047
토쿠	-11.5047
▁느낀	-11.5047
▁개최국	-11.5048
▁아시	-11.5048
▁휘하의	-11.5049
▁가정에서	-11.5051
▁보복	-11.5052
민이	-11.5052
▁중요성을	-11.5053
▁요약	-11.5053
ん	-11.5054
최고	-11.5055
호선이	-11.5057
▁공표	-11.5059
HA	-11.506
▁즐기	-11.506
▁마을에서	-11.506
▁일하는	-11.5061
고등학교를	-11.5062
MO	-11.5063
▁차용	-11.5063
▁가고	-11.5064
▁체조	-11.5064
▁1882	-11.5065
▁Korea	-11.5065
데일	-11.5065
사자	-11.5065
▁사업에	-11.5066
▁주조	-11.5067
▁시작하면서	-11.5068
▁캔	-11.5068
▁고성	-11.5069
CH	-11.507
▁깔	-11.507
▁드러머	-11.5071
▁900	-11.5071
개씩	-11.5071
▁느끼	-11.5071
▁있거나	-11.5074
▁디스	-11.5074
▁아이디어	-11.5076
▁발리	-11.5077
▁안된다	-11.5077
▁천거	-11.5078
▁규정에	-11.5078
ark	-11.5078
▁81	-11.5079
투어	-11.5079
―	-11.5079
▁비교해	-11.508
▁펼쳤	-11.508
▁도왔다	-11.5081
▁함자	-11.5082
내의	-11.5084
▁정립	-11.5085
리야	-11.5085
▁로비	-11.5085
▁이즈	-11.5086
▁시즌에서	-11.5086
식품	-11.5086
▁함경남도	-11.5087
▁알려주	-11.5089
▁쪽에	-11.5089
DR	-11.5092
▁사랑하는	-11.5093
▁격자	-11.5093
▁비판하였다	-11.5093
미술관	-11.5094
▁결론을	-11.5096
운동에	-11.5099
액을	-11.5101
주지	-11.5103
▁명성	-11.5103
▁특권	-11.5105
영의	-11.5106
▁창출	-11.5107
▁무슨	-11.5107
▁춘추	-11.5108
▁끌고	-11.5109
듀	-11.5109
NC	-11.5109
▁CO	-11.511
▁효율	-11.511
▁생겨난	-11.5111
▁부정적	-11.5111
▁맞은	-11.5112
▁불신	-11.5112
▁물질이	-11.5112
▁무함마드	-11.5113
▁호위	-11.5113
▁제수	-11.5116
▁사바	-11.5118
TR	-11.5119
▁공격했다	-11.512
▁장원	-11.512
▁남아있	-11.5121
恩	-11.5121
▁유벤투스	-11.5121
▁오크	-11.5122
▁국제적	-11.5122
▁집결	-11.5123
▁라이프	-11.5123
▁태어났	-11.5124
▁신의	-11.5124
보니	-11.5125
▁끌었다	-11.5125
▁대부	-11.5126
버전	-11.5127
▁예이다	-11.5127
-12	-11.5128
▁컴퍼니	-11.5129
▁지도자들	-11.5129
▁출가	-11.513
我	-11.513
鍾	-11.513
KA	-11.5131
▁하우	-11.5132
▁싸이	-11.5133
카는	-11.5136
▁해고	-11.5137
▁흔적이	-11.5138
機	-11.5138
▁수록예정자	-11.5138
▁지칭	-11.5139
▁모인	-11.5139
▁몰수	-11.5139
선수권대회	-11.5141
이끼	-11.5141
▁발령	-11.5142
있어	-11.5142
▁크기를	-11.5142
▁성장을	-11.5143
▁실시한	-11.5144
▁국어	-11.5144
▁운동가	-11.5146
▁수행할	-11.5146
▁요르단	-11.5147
▁상금	-11.5147
н	-11.5147
(2013	-11.5148
TI	-11.5148
▁1883	-11.5149
▁활발히	-11.5149
▁학생들의	-11.5153
모니	-11.5153
친왕	-11.5153
▁Ba	-11.5154
▁대성전	-11.5155
畵	-11.5155
▁앵	-11.5156
향교	-11.5157
▁가산	-11.5157
▁주를	-11.5158
대리	-11.5159
▁겁	-11.516
랙	-11.5161
기관으로	-11.5162
▁총리가	-11.5162
▁클라이언트	-11.5164
術	-11.5164
내기	-11.5164
▁남게	-11.5166
▁1892	-11.5167
▁복귀했다	-11.5167
▁뛰었다	-11.5167
▁정해	-11.5168
▁설교	-11.5168
▁고향인	-11.5169
ins	-11.5172
▁봄에	-11.5172
▁잃어	-11.5173
▁리더십	-11.5174
토키	-11.5174
바람	-11.5174
▁원격	-11.5175
루를	-11.5175
▁로렌	-11.5175
〉()	-11.5175
▁탄도	-11.5177
▁제시한	-11.5178
▁조부	-11.5178
받는다	-11.5178
▁나중에는	-11.5179
▁Time	-11.5179
▁사고를	-11.5179
▁구경	-11.518
黨	-11.518
惠	-11.5181
▁최하위	-11.5181
▁개항	-11.5182
▁겐지	-11.5183
▁불타	-11.5184
▁설화	-11.5185
▁가족은	-11.5186
아일랜드	-11.5186
pro	-11.5187
토를	-11.5188
▁연루	-11.5189
▁지옥	-11.5189
dr	-11.5192
병이	-11.5192
▁정문	-11.5193
▁한민족	-11.5193
▁|	-11.5193
▁78	-11.5195
▁느낌	-11.5196
動	-11.5198
次	-11.5198
居	-11.5198
▁클라우드	-11.5198
▁단기	-11.5203
▁정치인으로	-11.5203
▁정보가	-11.5203
▁마녀	-11.5203
사관학교	-11.5204
▁벨리	-11.5205
▁목록에	-11.5205
▁입수	-11.5206
▁부드러운	-11.5206
▁밝	-11.5207
▁드리	-11.5207
▁암흑	-11.5207
▁히사	-11.5208
▁경찰관	-11.521
▁뉴욕주	-11.5211
▁정의된다	-11.5212
쁘	-11.5212
▁없던	-11.5212
▁붐	-11.5213
▁감자	-11.5213
▁싸웠다	-11.5213
▁활발	-11.5214
▁건설된	-11.5214
▁선이	-11.5214
▁막대	-11.5217
ort	-11.5217
lus	-11.5217
▁직통	-11.5218
그로	-11.5219
▁출석	-11.522
▁김민	-11.522
▁용암	-11.522
우며	-11.5221
실이	-11.5222
경의	-11.5222
▁합친	-11.5223
이름	-11.5223
땃쥐	-11.5223
柱	-11.5223
pt	-11.5224
▁격렬한	-11.5225
▁실력을	-11.5225
gy	-11.5225
El	-11.5226
IF	-11.5226
누마	-11.5227
▁카나	-11.5227
▁지구에	-11.5228
▁정치적으로	-11.5228
▁기여를	-11.5229
▁학과	-11.523
▁친일반민족행위	-11.5232
▁긴테쓰	-11.5232
dd	-11.5233
▁CEO	-11.5233
▁기르	-11.5233
전력	-11.5233
▁고아	-11.5234
▁실패하고	-11.5234
▁꿀	-11.5234
▁가난	-11.5236
▁숨어	-11.5237
▁원인을	-11.5237
▁면제	-11.524
ki	-11.5241
▁말까지	-11.5242
▁의자	-11.5243
▁형성되어	-11.5243
▁모습은	-11.5243
▁다테	-11.5244
▁갈아	-11.5245
지휘	-11.5247
민주주의	-11.5247
▁71	-11.5249
▁디트로이트	-11.5249
랏	-11.5249
▁가옥	-11.525
▁보증	-11.5251
되도록	-11.5251
지인	-11.5252
▁체포되었다	-11.5253
▁임원	-11.5254
▁현행	-11.5254
▁중심에	-11.5256
관에서	-11.5257
▁익스프레스	-11.5258
▁열도	-11.5258
바타	-11.5259
▁종교개혁	-11.526
암동	-11.5261
eo	-11.5262
사장	-11.5265
▁반전	-11.5265
▁조성된	-11.5265
▁해체되었다	-11.5265
▁당수	-11.5266
▁선도	-11.5267
▁케플러	-11.5267
▁왼손	-11.5267
▁마라	-11.5271
▁노론	-11.5272
형과	-11.5272
IV	-11.5274
▁저지대	-11.5276
남면	-11.5276
▁북아일랜드	-11.5276
▁침체	-11.5276
▁각국의	-11.5277
른다	-11.5278
▁조립	-11.5279
트론	-11.5279
▁끌려	-11.528
ene	-11.528
▁자비	-11.528
▁예시	-11.5281
▁장소로	-11.5281
by	-11.5283
▁무실점	-11.5283
▁문예	-11.5283
火	-11.5284
▁아시카가	-11.5284
▁교량	-11.5286
▁기사단	-11.5289
▁용이	-11.5289
리드	-11.5292
▁합스부르크	-11.5293
▁키예프	-11.5294
%)	-11.5295
▁부가	-11.5295
▁자생	-11.5299
▁103	-11.5299
인구	-11.53
▁천연기념물	-11.5301
▁알렉	-11.5305
리움	-11.5305
서도	-11.5306
▁실무	-11.5307
▁움	-11.5309
受	-11.5309
▁시즌부터	-11.5311
▁학생들	-11.5315
▁체크	-11.5315
▁나오고	-11.5315
▁낙선	-11.5316
과정에서	-11.5316
킬로미터	-11.5317
내가	-11.5317
▁용서	-11.5317
▁아리스토텔레스	-11.5318
▁트로피	-11.5318
▁타르	-11.5318
FS	-11.5322
▁예고	-11.5323
화물	-11.5324
세기경	-11.5324
회원	-11.5324
▁역사학자	-11.5324
▁직원들	-11.5325
슬라	-11.5325
▁북경	-11.5327
▁냄새	-11.5327
핏	-11.5327
▁후기에	-11.5328
호텔	-11.5328
동원	-11.5329
▁예수의	-11.533
▁창시자	-11.5331
난다	-11.5332
▁빈곤	-11.5333
▁허위	-11.5333
추진	-11.5333
▁RNA	-11.5334
그림	-11.5335
▁카시	-11.5335
▁알렉산드르	-11.5335
▁일컬어	-11.5336
▁기하학	-11.5336
▁남북으로	-11.5336
▁84	-11.5338
▁게르	-11.534
▁Gu	-11.534
▁무조건	-11.534
왜	-11.5341
▁</	-11.5342
▁알리는	-11.5343
Ho	-11.5343
泉	-11.5344
▁가르쳤다	-11.5344
▁74	-11.5347
▁이룩	-11.5348
▁좌표	-11.5348
▁룰	-11.5348
▁밖에서	-11.535
▁선수는	-11.5351
▁파이어	-11.5353
▁생겼	-11.5354
over	-11.5355
▁구성원들	-11.5355
▁언어는	-11.5357
▁자랐다	-11.5358
++	-11.5358
구리	-11.5361
폭력	-11.5363
ya	-11.5366
▁호족	-11.5367
▁은거	-11.5367
주의자들	-11.5368
▁손해배상	-11.537
か	-11.537
▁여수	-11.5371
▁천문학자	-11.5371
▁방향에	-11.5371
▁중대한	-11.5371
천동	-11.5372
▁연못	-11.5373
▁생물학적	-11.5373
▁국영	-11.5375
▁서쪽은	-11.5375
두고	-11.5375
▁릴	-11.5376
▁소셜	-11.5376
▁리스	-11.5377
▁국가는	-11.5377
▁김지	-11.5377
갔으나	-11.5383
하자는	-11.5383
▁더해	-11.5384
▁배우자	-11.5384
되지는	-11.5386
꿈	-11.5387
岩	-11.5388
▁수준으로	-11.5388
▁태백	-11.539
▁도착했다	-11.5391
▁데뷔한	-11.5391
전대	-11.5392
▁헌정	-11.5392
▁제안했다	-11.5393
▁87	-11.5395
▁더비	-11.5395
▁여운형	-11.5396
▁옥수수	-11.5396
▁작다	-11.5396
워드	-11.5398
▁줄여	-11.5398
▁뻗	-11.5399
▁슬라브	-11.5399
▁생체	-11.54
▁자세히	-11.5401
▁파도	-11.5402
우회	-11.5403
▁단면	-11.5403
▁가가	-11.5403
우와	-11.5404
녀를	-11.5405
▁겉보기	-11.5405
▁무술	-11.5407
▁1848	-11.5407
ator	-11.5408
▁묘사한	-11.5409
▁낮추	-11.541
일반	-11.5411
▁난카이	-11.5411
▁과실	-11.5413
▁닫힌	-11.5414
탄을	-11.5415
타워	-11.5415
해야만	-11.5417
▁작용을	-11.5419
▁독도	-11.542
tis	-11.5421
▁시절의	-11.5422
chi	-11.5423
▁않자	-11.5424
▁요새를	-11.5425
▁SP	-11.5426
▁분류군	-11.5427
▁BC	-11.5427
법상	-11.543
만명의	-11.5431
OC	-11.5431
엔터테인먼트	-11.5431
평론가	-11.5431
▁꼽힌다	-11.5431
▁가자	-11.5431
las	-11.5431
▁이내에	-11.5432
▁삼층석탑	-11.5432
▁선수단은	-11.5433
▁관제	-11.5434
▁누구나	-11.5436
▁아종	-11.5437
▁통합하여	-11.5437
▁발병	-11.5438
▁정도를	-11.5438
벅	-11.544
▁파나마	-11.544
▁정치를	-11.5441
사회주의	-11.5441
hr	-11.5441
▁이용된다	-11.5441
▁감동	-11.5443
▁연산군	-11.5444
▁성리학	-11.5447
м	-11.5449
윅	-11.5449
eb	-11.5452
▁회사인	-11.5453
▁경향을	-11.5454
▁펑크	-11.5455
▁내용에	-11.5456
▁System	-11.5456
▁디오	-11.5456
▁로빈	-11.5457
랐다	-11.5457
▁자민당	-11.5457
▁굵은	-11.5458
▁올랐으며	-11.5458
복음	-11.546
red	-11.5463
코의	-11.5465
▁학교의	-11.5466
▁득표율	-11.5466
▁되었던	-11.5466
▁즐길	-11.5466
▁초빙	-11.5467
▁코믹	-11.5468
▁치고	-11.5469
▁노선이다	-11.5469
▁승강장을	-11.547
▁심야	-11.5473
▁노르	-11.5474
▁닛폰	-11.5475
▁사용되며	-11.5475
▁주장에	-11.5476
▁다마	-11.5477
▁소리가	-11.5477
▁점에	-11.5478
▁소문이	-11.5478
▁점유	-11.5479
orn	-11.5484
수이다	-11.5487
▁연기했다	-11.5488
▁전하는	-11.5491
위까지	-11.5492
▁소령	-11.5492
▁여우주연상	-11.5493
받았고	-11.5494
▁어렸을	-11.5494
▁완성된	-11.5494
▁바꾸고	-11.5496
▁연쇄	-11.5497
▁보이스	-11.5498
▁징계	-11.5498
р	-11.5501
▁상담	-11.5502
▁했었다	-11.5503
▁캠	-11.5503
▁하에서	-11.5504
▁문화가	-11.5504
심사	-11.5505
▁Po	-11.5505
▁트라이	-11.5507
▁배려	-11.5508
▁오기	-11.5508
▁일으켰	-11.5509
▁조지프	-11.551
▁일이었다	-11.551
▁남쪽은	-11.5511
▁말부터	-11.5513
▁찬양	-11.5513
▁대본	-11.5513
SR	-11.5514
등기	-11.5514
▁Na	-11.5514
▁경질	-11.5518
라기	-11.5518
▁중점을	-11.5519
▁스톡홀름	-11.5519
▁투명	-11.5519
▁접수	-11.5519
▁대전이	-11.552
▁약혼	-11.552
▁바꾸는	-11.552
▁보강	-11.552
▁구성되었다	-11.552
bit	-11.5521
▁뱅크	-11.5524
▁기질	-11.5525
▁기관총	-11.5526
▁작성한	-11.5527
▁인정하는	-11.5529
▁러셀	-11.5529
▁영역에서	-11.5529
왔지만	-11.553
▁맹세	-11.5531
▁분위기를	-11.5531
테이션	-11.5531
▁원인으로	-11.5532
▁쿤	-11.5533
▁올리는	-11.5534
▁아부	-11.5534
▁악단	-11.5535
▁마다가스카르	-11.5537
▁조수	-11.5537
▁미나	-11.5538
▁총선거	-11.5539
▁학생들은	-11.5541
죄로	-11.5542
▁벤치	-11.5542
대에서	-11.5542
▁일어나고	-11.5543
▁친분	-11.5544
교의	-11.5544
att	-11.5544
▁We	-11.5544
보기	-11.5545
▁기술적	-11.5545
τ	-11.5545
俊	-11.5546
▁AP	-11.5546
▁섞어	-11.5546
▁개인전	-11.5546
▁거짓말	-11.5548
▁복권	-11.5549
▁Un	-11.5551
▁사각형	-11.5551
▁마카오	-11.5552
▁분리된	-11.5552
AI	-11.5553
▁거란	-11.5553
▁돌로	-11.5554
▁트럼프	-11.5554
▁사람들과	-11.5555
▁분당	-11.5555
▁대회가	-11.5556
▁1893	-11.5557
PD	-11.5557
▁왜성	-11.5557
▁자음	-11.5557
▁유타	-11.5558
▁타협	-11.5558
히사	-11.556
년도에	-11.556
건의	-11.5565
연방	-11.5565
▁지닌다	-11.5566
▁지키기	-11.5568
▁폭격기	-11.5569
▁건물이다	-11.5569
▁1888	-11.5569
▁30%	-11.5569
▁테르	-11.5571
▁빔	-11.5572
▁발렌시아	-11.5572
▁궁궐	-11.5573
▁생겨났다	-11.5574
▁파병	-11.5574
▁지구를	-11.5575
▁표현한	-11.5577
진과	-11.5577
▁의혹이	-11.5577
▁인접해	-11.5578
▁치열한	-11.5578
혐	-11.5579
▁들은	-11.5581
▁컨트리	-11.5582
▁메달을	-11.5583
▁온다	-11.5583
▁커뮤니케이션	-11.5585
▁실시간	-11.5586
▁헨	-11.5589
▁증거가	-11.559
▁감금	-11.5592
▁만의	-11.5592
배를	-11.5593
▁기록되었다	-11.5594
교육청	-11.5595
▁수익을	-11.5598
丁	-11.5599
▁야마가타	-11.5599
▁옴	-11.5599
▁박정	-11.5602
▁・	-11.5604
▁재질	-11.5604
뮤직	-11.5606
▁명에	-11.5606
▁Qu	-11.5606
▁운행하고	-11.5607
ο	-11.5608
昭	-11.5608
▁올바른	-11.5608
▁위주로	-11.5608
ane	-11.5609
▁앞쪽	-11.5609
▁무대에서	-11.5611
▁하행	-11.5611
Robert	-11.5612
▁시달리	-11.5612
실험	-11.5614
▁항쟁	-11.5614
▁이해할	-11.5615
▁도움	-11.5615
log	-11.5616
類	-11.5616
紀	-11.5617
해지자	-11.5617
▁법조인	-11.5617
▁비롯된	-11.5619
▁보도했다	-11.562
▁영국인	-11.5622
▁미치지	-11.5622
▁둔다	-11.5622
▁LA	-11.5623
▁지지율	-11.5624
▁속편	-11.5624
な	-11.5625
盧	-11.5625
▁설명하고	-11.5625
청이	-11.5626
▁등장하였다	-11.5628
▁개인적인	-11.563
▁비자	-11.5632
▁대학교를	-11.5633
사태	-11.5633
▁사용하기도	-11.5633
果	-11.5634
ild	-11.5635
▁거부했다	-11.5637
▁부적	-11.5637
▁믿는	-11.5637
▁우승했다	-11.5638
▁듀오	-11.564
▁모시고	-11.564
▁밝혀진	-11.564
▁좁	-11.5642
_17	-11.5643
No	-11.5643
▁밀러	-11.5644
▁왜구	-11.5644
덩이	-11.5645
▁지키고	-11.5646
▁못하여	-11.5646
-23	-11.5647
개국에서	-11.5648
▁않아서	-11.5648
▁음악에	-11.5648
▁입양	-11.5648
▁편에	-11.565
▁원료	-11.565
▁갖추	-11.5652
▁최연소	-11.5652
▁처녀	-11.5653
▁투항	-11.5654
된다고	-11.5654
▁가나가와현	-11.5654
▁돌출	-11.5654
측의	-11.5654
▁역사와	-11.5657
라바	-11.5657
span	-11.5658
▁총사령관	-11.5658
▁사이토	-11.5658
들리	-11.5658
▁대학생	-11.5659
▁전날	-11.5659
▁장흥	-11.5659
▁계정	-11.5659
▁일반인	-11.5659
결합	-11.5659
정동	-11.566
▁군산	-11.5661
▁그녀에게	-11.5662
▁책이다	-11.5662
To	-11.5665
▁암호화	-11.5665
▁무대로	-11.5665
▁저격	-11.5668
펫	-11.567
속에서	-11.567
▁역사에서	-11.5676
▁우물	-11.5676
▁제작사	-11.5676
길을	-11.5676
니에	-11.5677
태자	-11.5677
▁농사	-11.5679
▁비례대표	-11.568
▁공격으로	-11.568
▁80%	-11.568
▁체인	-11.5682
▁옆면	-11.5682
▁선동	-11.5683
qui	-11.5683
▁이론에서	-11.5683
시다	-11.5685
▁철학적	-11.5685
▁불행	-11.5685
▁기념하여	-11.5686
▁대회에서는	-11.5687
▁시나	-11.5687
▁부딪	-11.5688
▁李	-11.5689
▁사회민주당	-11.5692
있지	-11.5692
▁선택할	-11.5692
▁AM	-11.5693
쿼	-11.5693
▁SA	-11.5696
▁기본으로	-11.5696
▁스폰서	-11.5697
▁받으면서	-11.5697
hu	-11.5697
}	-11.5697
▁입국	-11.5699
보수	-11.5699
▁표준화	-11.57
▁수행한다	-11.5702
▁기여하였다	-11.5702
▁검출	-11.5704
▁가문은	-11.5705
▁적용되었다	-11.5705
▁카드를	-11.5705
▁효과적으로	-11.5706
사진	-11.5706
▁복용	-11.5708
면으로	-11.5711
▁경상	-11.5712
▁아가	-11.5713
夫	-11.5713
▁선행	-11.5714
▁지나는	-11.5714
▁지분	-11.5715
토는	-11.5715
▁김규식	-11.5715
▁게릴라	-11.5716
▁단독으로	-11.5719
▁계약이	-11.5724
▁상트페테르부르크	-11.5724
왕조	-11.5724
▁운영되고	-11.5725
tr	-11.5726
sk	-11.5726
노트	-11.5729
골로	-11.5732
PM	-11.5732
▁종점	-11.5733
괘	-11.5733
행위를	-11.5734
▁공개했다	-11.5735
▁내무부	-11.5735
▁칙	-11.5736
▁발생하여	-11.5737
▁일어나지	-11.5739
▁화학적	-11.5739
▁국가와	-11.5739
▁진행하는	-11.574
▁만성	-11.574
▁목적이	-11.574
▁자칭	-11.574
▁비용이	-11.574
▁표현할	-11.574
▁지정되었다가	-11.5741
▁반군	-11.5741
▁강간	-11.5743
▁발라	-11.5744
ze	-11.5744
▁초원	-11.5745
레이스	-11.5747
▁진전	-11.5747
지나	-11.5748
▁원내	-11.5749
▁파문	-11.5749
▁독성	-11.5752
▁마우	-11.5752
▁수축	-11.5752
산과	-11.5753
▁우파	-11.5753
르드	-11.5753
▁어드벤처	-11.5753
크와	-11.5753
▁97	-11.5755
지어	-11.5755
대통령	-11.5755
▁총무	-11.5757
교류	-11.5757
줌	-11.5759
번은	-11.576
▁제프	-11.576
국과	-11.5761
▁돌을	-11.5762
▁교육부	-11.5762
▁왕국은	-11.5762
▁불린	-11.5763
▁로키	-11.5763
▁형성되었다	-11.5763
▁상태의	-11.5764
▁성전	-11.5765
▁듣지	-11.5765
▁관계자	-11.5765
▁도시에서	-11.5767
덱	-11.5767
Tr	-11.5767
▁델타	-11.5769
uch	-11.5769
▁생전에	-11.577
▁유지하기	-11.577
▁내무	-11.5773
모음	-11.5773
▁단원	-11.5774
▁스노	-11.5776
▁카타르	-11.5776
▁허가를	-11.5777
▁용어이다	-11.5778
위권	-11.5778
▁득	-11.5778
▁장면이	-11.5778
▁케이스	-11.578
▁따왔다	-11.5781
블러	-11.5781
▁끄	-11.5782
컴퓨터	-11.5782
비로	-11.5782
법률	-11.5783
다발	-11.5784
분해	-11.5784
▁지도를	-11.5784
▁Is	-11.5784
▁이전부터	-11.5785
▁육군의	-11.5785
▁청사	-11.5785
ef	-11.5785
▁부각	-11.5786
▁경주시	-11.5788
▁제한된	-11.5788
옷	-11.5789
▁학생들을	-11.5789
▁파손	-11.5789
▁요청했다	-11.579
▁쓰여진	-11.5791
▁가맹	-11.5792
▁내용이다	-11.5794
▁윙	-11.5795
▁타점	-11.5796
▁헤르체고비나	-11.5796
池	-11.5796
캣	-11.5796
▁불확실	-11.5796
▁유격수	-11.5796
▁79	-11.5796
得	-11.5797
▁그로부터	-11.5797
▁누적	-11.5797
▁중퇴	-11.5797
New	-11.5797
▁종류로	-11.5797
▁거치	-11.58
▁시코쿠	-11.58
LC	-11.58
NK	-11.58
!》	-11.5802
퀘	-11.5804
▁염소	-11.5805
う	-11.5805
게이트	-11.5806
▁부대가	-11.5806
▁82	-11.5806
▁페이스북	-11.5807
▁쾌	-11.5807
증권	-11.5809
▁부작용	-11.5812
▁원전	-11.5814
室	-11.5814
겼고	-11.5815
ald	-11.5817
BM	-11.5817
▁배운	-11.5817
▁랭	-11.5818
OH	-11.5818
동면	-11.5818
▁교수를	-11.5819
▁명분	-11.5819
ok	-11.582
텍스	-11.5821
EX	-11.5822
▁자크	-11.5822
▁담당한다	-11.5824
▁활동하다가	-11.5825
주의에	-11.5826
ord	-11.5826
▁전했다	-11.5826
▁솟아	-11.5831
톤의	-11.5832
▁와이번스	-11.5833
▁선임되었다	-11.5833
▁싸우는	-11.5836
▁때인	-11.5838
▁1868	-11.5839
청사	-11.584
자이자	-11.5841
▁정경	-11.5842
▁지원하기	-11.5842
▁엔진이	-11.5842
색이	-11.5843
가야	-11.5844
▁터보	-11.5844
▁이뤄지	-11.5844
▁3.1	-11.5847
▁아키타	-11.5848
▁게임이	-11.5848
▁년간	-11.5849
▁사전에	-11.5849
▁후진	-11.5851
初	-11.5851
▁극심한	-11.5851
品	-11.5851
▁넷째	-11.5851
쪽으로	-11.5852
▁종파	-11.5853
▁플랜	-11.5853
왔	-11.5853
그러	-11.5854
▁관구	-11.5855
▁ex	-11.5855
▁남산	-11.5855
파이어	-11.5856
▁SD	-11.5856
▁내야수	-11.5856
cle	-11.5858
ensis	-11.5859
par	-11.5859
▁성별	-11.5859
▁가계	-11.5859
▁데뷔하였으며	-11.586
레네	-11.586
▁마닐라	-11.586
▁정상에	-11.5861
피트	-11.5861
van	-11.5862
▁세력은	-11.5862
받게	-11.5866
▁내어	-11.5867
▁진해	-11.5868
▁포스터	-11.5868
엣	-11.5868
ett	-11.5869
▁나타나고	-11.5869
fa	-11.587
티니	-11.5871
▁밭	-11.5872
▁지상역	-11.5872
▁칼럼	-11.5872
봄	-11.5874
▁이용자	-11.5874
▁주목받	-11.5875
▁죽기	-11.5875
▁포괄	-11.5876
수산	-11.5876
구성	-11.5877
PO	-11.5877
目	-11.5878
▁해밀턴	-11.5878
▁대합실	-11.5878
▁럭비	-11.5878
▁위와	-11.588
▁추론	-11.588
_18	-11.5881
▁김포	-11.5883
▁불안정	-11.5885
즈키	-11.5885
▁CBS	-11.5885
▁교회를	-11.5886
▁구내	-11.5886
▁세레	-11.5889
▁예명	-11.589
▁심각	-11.5892
▁퍼지	-11.5894
대책	-11.5895
▁재판을	-11.5896
▁패밀리	-11.5897
공은	-11.5898
▁로저	-11.59
▁조형	-11.59
▁100%	-11.5901
▁소련은	-11.5902
▁레인	-11.5902
▁읽고	-11.5903
렸지만	-11.5904
▁헬기	-11.5905
▁증권	-11.5905
▁예정이었으나	-11.5907
력에	-11.5908
토록	-11.5911
▁시마	-11.5912
레인	-11.5912
tan	-11.5914
륭	-11.5915
▁스트라이커	-11.5915
▁동쪽은	-11.5916
▁Day	-11.5916
▁리그를	-11.5918
끄러	-11.5918
▁버마	-11.5919
놈	-11.5919
자금	-11.592
▁오로지	-11.592
자였다	-11.592
▁이용해서	-11.5921
с	-11.5924
프스	-11.5924
▁드디어	-11.5924
자치	-11.5925
▁복합체	-11.5925
▁상용	-11.5926
▁논란을	-11.5927
노조	-11.5927
▁유료	-11.5928
▁별개의	-11.5928
▁아프	-11.5929
▁목판	-11.5929
메트	-11.5929
▁고려시대의	-11.5929
So	-11.5929
▁혼다	-11.593
▁국보	-11.593
▁투어를	-11.593
▁길에	-11.5931
舍	-11.5933
팀은	-11.5936
▁평화를	-11.5936
▁실전	-11.5938
▁언급했다	-11.5939
▁자제	-11.5939
작으로	-11.594
▁포르투	-11.5941
면서도	-11.5941
옆면	-11.5941
▁강하다	-11.5942
include	-11.5942
뮤	-11.5943
▁사무총장	-11.5943
▁선생님	-11.5944
▁음향	-11.5946
▁보존되어	-11.5947
▁서진	-11.595
▁동일하게	-11.595
PP	-11.595
제조	-11.5951
▁쥬	-11.5951
회의에서	-11.5951
▁지원하고	-11.5952
▁치아	-11.5953
▁노선으로	-11.5953
클린	-11.5955
▁찾아내	-11.5958
시즌을	-11.5959
▁기간은	-11.5959
▁시합	-11.5961
▁쾰른	-11.5961
▁버클리	-11.5962
▁회피	-11.5963
▁추첨	-11.5963
▁갈리아	-11.5964
▁물체의	-11.5964
▁졸업생	-11.5967
▁주관하는	-11.5967
▁충북	-11.5968
▁떼	-11.5968
나가는	-11.5968
퍼센트	-11.5968
▁하인	-11.5968
▁북쪽은	-11.5969
▁사우	-11.5969
系	-11.597
▁아키텍처	-11.597
▁넘게	-11.5971
~15	-11.5971
▁정점	-11.5972
코르	-11.5973
▁데서	-11.5974
▁반도의	-11.5976
엑스	-11.5977
▁아치	-11.5977
▁위험을	-11.5978
국에서	-11.5978
영상	-11.5979
ref	-11.5979
咸	-11.5979
▁댄	-11.598
▁잃었	-11.598
▁재편	-11.598
▁질소	-11.598
▁양이	-11.598
▁하노이	-11.5981
▁일자리	-11.5981
▁작업이	-11.5981
크레	-11.5982
▁토지를	-11.5983
▁가해	-11.5983
▁역명	-11.5984
발의	-11.5984
▁se	-11.5985
▁영지를	-11.5986
▁전래	-11.5987
▁이름과	-11.5987
ative	-11.5988
▁뾰족	-11.5989
曲	-11.5989
▁휠	-11.5989
즈와	-11.5989
셨다	-11.5989
▁웨스턴	-11.5989
Co	-11.599
▁아마존	-11.5991
▁전시회	-11.5993
공작	-11.5994
▁플라이	-11.5994
희의	-11.5995
줘	-11.5996
百	-11.5998
호쿠	-11.5998
▁걸린	-11.5998
▁문과	-11.6
▁생산된	-11.6
▁받았다고	-11.6001
바퀴	-11.6002
▁음악의	-11.6003
Lo	-11.6003
▁105	-11.6004
▁오늘날에는	-11.6006
▁흐르고	-11.6006
д	-11.6007
▁프랭클린	-11.6007
▁주연을	-11.6007
▁쓰레기	-11.6007
▁변경했다	-11.6008
▁피고	-11.6008
▁마침	-11.6009
▁어둠	-11.6009
갈색	-11.6011
디오	-11.6011
▁반지	-11.6011
체와	-11.6011
▁경찰이	-11.6012
졌을	-11.6012
▁의무를	-11.6013
▁동부에	-11.6014
▁아산	-11.6014
▁본작	-11.6015
ari	-11.6015
韓國	-11.6016
▁정치에	-11.6016
宇	-11.6016
씬	-11.6016
營	-11.6016
ral	-11.6018
▁점포	-11.6018
▁생각이	-11.6019
▁심화	-11.602
하늘	-11.6022
▁전복	-11.6023
▁타이거스	-11.6024
▁지리적	-11.6025
사용	-11.6025
▁첨단	-11.6025
▁에디션	-11.6026
▁시스템에	-11.6027
▁활성	-11.6027
▁접근할	-11.6027
▁장군은	-11.6028
▁포획	-11.6028
▁보낸다	-11.6028
▁치루	-11.6029
▁국가대표팀에	-11.6029
▁중심지로	-11.603
▁조선시대에	-11.6032
mus	-11.6033
▁•	-11.6034
▁튀니지	-11.6035
▁시라	-11.6035
▁언론에	-11.6036
ky	-11.6036
▁최적화	-11.6036
▁셈	-11.6036
▁문제와	-11.6036
박물관에	-11.6037
옹주	-11.6037
▁외에는	-11.6038
▁이용객	-11.6039
▁상황은	-11.604
▁끼쳤다	-11.6041
#	-11.6042
▁반역	-11.6042
▁나타났	-11.6042
▁복선	-11.6043
▁받아야	-11.6044
嘉	-11.6044
삐	-11.6044
▁350	-11.6045
▁별세	-11.6045
▁극작가	-11.6046
▁도시에	-11.6046
Di	-11.6046
리치	-11.6048
▁출판되었다	-11.6048
▁전국적으로	-11.6048
▁자치체	-11.6048
▁실린	-11.6049
연수	-11.6052
▁눈물	-11.6053
www	-11.6054
▁비주얼	-11.6054
▁향토문화유산	-11.6054
▁중엽	-11.6054
▁상관없이	-11.6054
▁늘어났다	-11.6055
▁미루어	-11.6055
▁펜싱	-11.6055
▁평민	-11.6056
설계	-11.6056
ella	-11.6061
▁높이가	-11.6061
봉산	-11.6062
▁호프	-11.6063
▁어긋나	-11.6063
▁중수	-11.6063
▁Fr	-11.6063
▁시호	-11.6064
▁동성	-11.6065
▁핑크	-11.6066
면은	-11.6066
▁명명되었다	-11.6067
▁섬과	-11.6068
▁서임	-11.6069
기타	-11.6069
▁방문하여	-11.6069
바인	-11.6069
▁증손	-11.607
▁자치주	-11.6071
노는	-11.6071
▁밴드를	-11.6071
Pro	-11.6071
▁펼친	-11.6072
▁예선전	-11.6073
▁티켓	-11.6074
▁사업가	-11.6077
▁초점	-11.6079
rd	-11.608
▁급수	-11.608
직접적인	-11.6081
Sa	-11.6082
▁계몽	-11.6085
웃	-11.6086
▁벽화	-11.6088
tin	-11.6089
▁International	-11.609
▁1886	-11.609
▁마르크스주의	-11.609
▁강풍	-11.6091
순위로	-11.6092
▁캐리	-11.6092
▁하류	-11.6093
▁10,000	-11.6095
▁공약	-11.6095
것은	-11.6095
▁붓	-11.6097
▁서부에	-11.6098
▁전해지는	-11.6098
▁테라	-11.6099
현동	-11.6099
▁순으로	-11.6099
only	-11.6102
▁최소화	-11.6102
▁천하	-11.6102
▁벌여	-11.6102
▁자결	-11.6103
▁정선	-11.6105
▁자료이다	-11.6105
코리아	-11.6106
장교	-11.6106
색은	-11.6108
▁NT	-11.6109
▁세종특별자치시	-11.611
▁안경	-11.611
▁가리지	-11.611
▁활주로	-11.6111
품으로	-11.6112
▁국왕의	-11.6113
▁러시아와	-11.6113
rus	-11.6114
▁방송인	-11.6114
▁발표하고	-11.6114
▁정치학	-11.6118
▁교육과정	-11.6118
된다는	-11.6118
관왕	-11.6118
▁얇은	-11.6119
▁퍼포먼스	-11.6119
트랙	-11.6119
▁방송되는	-11.612
▁실버	-11.6121
▁힘으로	-11.6122
▁점령했다	-11.6122
▁돌아왔	-11.6123
▁도청	-11.6125
▁돌보	-11.6125
▁미사일을	-11.6126
▁김명	-11.6127
▁실존	-11.6128
▁팔아	-11.6128
▁알래스카	-11.6128
▁선수였다	-11.6128
하되	-11.6129
되었음을	-11.6129
▁권장	-11.6134
도쿄	-11.6134
▁제국주의	-11.6135
CE	-11.6135
▁주름	-11.6136
브리아	-11.6136
콜로	-11.6137
▁Music	-11.6138
▁닉	-11.6139
▁실정	-11.6141
▁전통적	-11.6142
▁싸움을	-11.6143
자격	-11.6144
▁염색체	-11.6144
▁지나가	-11.6144
남동	-11.6145
영조	-11.6145
▁강철	-11.6146
렸	-11.6146
OK	-11.6147
▁작가이다	-11.6148
▁피겨	-11.6148
ose	-11.615
강전에서	-11.6151
▁가격이	-11.6151
▁영업을	-11.6151
▁동유럽	-11.6152
노래	-11.6153
▁토끼	-11.6153
▁고려하여	-11.6154
르크	-11.6154
▁개체수	-11.6157
▁미야자키	-11.6157
츠의	-11.6157
▁오리온	-11.6158
▁다이어	-11.616
▁곡물	-11.6161
▁온대	-11.6162
▁죽게	-11.6163
중종	-11.6163
렀다	-11.6163
▁AT	-11.6164
▁연꽃	-11.6164
▁내리는	-11.6164
▁설립자	-11.6165
년경에	-11.6165
▁멜로	-11.6166
姓	-11.6166
▁베토벤	-11.6166
▁들어왔다	-11.6166
▁수여받았다	-11.6168
▁본질적	-11.6169
▁도장	-11.6169
▁Ra	-11.617
▁국정원	-11.617
▁사업자	-11.6171
분으로	-11.6172
▁지침	-11.6172
ct	-11.6174
▁항소	-11.6175
у	-11.6175
▁대법관	-11.6176
제도를	-11.6176
▁채무	-11.6176
▁비하여	-11.6176
▁미래의	-11.6177
▁변화는	-11.6177
▁가르침	-11.6179
▁다크	-11.6182
▁대북	-11.6182
올림픽	-11.6183
하겠다	-11.6184
젤리	-11.6184
仲	-11.6185
iss	-11.6185
진영	-11.6186
광장	-11.6186
▁별이	-11.6188
강도	-11.6189
▁이광	-11.6191
▁문화와	-11.6192
▁학설	-11.6192
▁격투	-11.6193
칸의	-11.6193
▁And	-11.6193
/4	-11.6194
▁듀얼	-11.6195
▁보다는	-11.6195
tel	-11.6196
▁일주일	-11.6196
기반	-11.6198
▁관계없이	-11.6199
▁돌고	-11.6199
▁평창	-11.62
▁헌법에	-11.62
▁낫	-11.6201
▁일제의	-11.6201
▁제도에	-11.6202
λ	-11.6204
▁안테나	-11.6204
▁알파벳	-11.6204
▁파기	-11.6205
▁참가자	-11.6205
률을	-11.6208
해질	-11.6209
▁흐른다	-11.6209
▁결별	-11.621
▁태생	-11.621
▁전당에	-11.6211
▁코치를	-11.6211
▁삼척	-11.6212
▁은퇴했다	-11.6212
▁초등	-11.6213
▁가족과	-11.6214
봉사	-11.6216
들보다	-11.6217
원수	-11.6219
▁닭	-11.6219
▁`	-11.622
men	-11.6221
개정	-11.6223
NT	-11.6223
메스	-11.6224
oli	-11.6226
▁못하다	-11.6226
▁텍사스주	-11.6226
음반	-11.6227
▁시리즈는	-11.6227
▁유래되었다	-11.6227
▁엔지니어	-11.6228
▁참사	-11.6229
개국이	-11.623
DO	-11.6231
先	-11.6232
훌	-11.6232
▁다툼	-11.6237
▁중령	-11.6237
▁플라톤	-11.6239
▁잠재적	-11.624
▁시신	-11.624
▁원산지	-11.6241
▁따뜻한	-11.6242
▁쉽다	-11.6242
▁그룹으로	-11.6242
▁진흥	-11.6243
위원회의	-11.6243
▁흐름을	-11.6243
2000	-11.6243
재료	-11.6243
▁제정된	-11.6244
▁심하게	-11.6245
▁퇴직	-11.6246
▁많지	-11.6246
▁On	-11.6249
루는	-11.625
▁90%	-11.625
▁늦게	-11.6251
▁아이치현	-11.6251
▁혼란을	-11.6251
▁기반한	-11.6251
▁SE	-11.6252
▁옥천	-11.6252
IL	-11.6253
▁04	-11.6254
▁정변	-11.6254
▁않	-11.6256
▁제출한	-11.6258
▁깨어	-11.6259
▁2-0	-11.6261
▁프랑스에	-11.6262
긴다	-11.6263
▁LP	-11.6264
▁가사를	-11.6264
du	-11.6265
▁나타나지	-11.6267
▁항우	-11.6268
▁중형	-11.6268
試	-11.627
▁같아	-11.6271
▁1891	-11.6271
▁Art	-11.6271
어머니	-11.6272
깊	-11.6273
▁회상	-11.6274
▁배속	-11.6277
파스	-11.6277
▁일조	-11.6278
▁강조했다	-11.6278
▁시애틀	-11.6279
▁제퍼슨	-11.628
▁War	-11.628
▁신자들	-11.628
▁되던	-11.6281
동초등학교	-11.6282
실에	-11.6282
먼은	-11.6283
▁여의도	-11.6283
▁종말	-11.6285
▁진행자	-11.6287
슬라프	-11.6287
▁애틀랜타	-11.6289
慧	-11.6289
▁겹쳐	-11.629
도서관은	-11.629
▁웹툰	-11.629
▁열차를	-11.6292
하르	-11.6293
▁긍정적	-11.6293
륵	-11.6295
cer	-11.6296
▁제목은	-11.6296
▁역사의	-11.6297
▁주목할	-11.6297
▁일으킨다	-11.6299
▁군이다	-11.6299
▁만들어낸	-11.6299
▁부르고뉴	-11.6299
▁쓰러	-11.63
▁이뤄진	-11.63
▁왕세자	-11.63
▁사례가	-11.6301
▁마르틴	-11.6301
▁붙여졌다	-11.6301
▁여겼다	-11.6302
▁반란군	-11.6303
▁입을	-11.6304
▁산둥	-11.6307
aster	-11.6308
쥬	-11.6309
역의	-11.6309
▁휴가	-11.631
▁형성하는	-11.631
ring	-11.6311
▁개인이	-11.6311
▁오나라	-11.6311
▁게시	-11.6312
▁현재도	-11.6315
원장	-11.6315
▁중국에	-11.6315
장비	-11.6316
▁젤	-11.6316
▁기하여	-11.6317
雄	-11.6318
렙	-11.6318
▁비영리	-11.6318
▁판례	-11.6318
▁시야	-11.6319
▁개봉되었다	-11.6319
▁Vi	-11.6323
▁도카이도	-11.6324
▁왕을	-11.6324
▁점수를	-11.6325
▁대기업	-11.6325
레인저	-11.6325
보건	-11.6326
▁Or	-11.6326
▁생계	-11.6326
▁십자	-11.6327
▁제주시	-11.6329
▁제도는	-11.633
▁표현이	-11.6331
▁흘	-11.6331
루트	-11.6331
▁놓인	-11.6332
▁습지	-11.6332
▁단점	-11.6332
▁사본	-11.6334
▁곳곳에	-11.6334
▁vs	-11.6334
▁현상은	-11.6334
▁한중	-11.6335
▁사후에	-11.6337
코마	-11.6337
▁발견되어	-11.6337
▁감옥	-11.6338
위기	-11.6338
▁조르	-11.6339
직으로	-11.6339
▁버전으로	-11.6339
▁분파	-11.6339
프와	-11.634
보안	-11.6342
▁열강	-11.6345
▁뻔	-11.6345
수용	-11.6345
▁거기	-11.6345
콥	-11.6346
▁이빨	-11.6346
ε	-11.6346
▁뉴캐슬	-11.6346
▁지상파	-11.6347
▁국민투표	-11.6348
▁종목에서	-11.6349
DC	-11.6349
▁신화에	-11.6351
천명	-11.6352
▁것입니다	-11.6353
렉스	-11.6354
▁가루	-11.6354
아서	-11.6354
▁오차	-11.6354
▁검열	-11.6355
▁앤드루	-11.6355
▁모스	-11.6357
▁서류	-11.6358
▁코끼리	-11.6358
▁방콕	-11.6358
사적	-11.6359
▁추상	-11.6359
▁폭포	-11.6359
▁해안에	-11.6359
▁위험이	-11.636
▁선수들은	-11.6361
▁적용된다	-11.6362
▁커서	-11.6362
▁민사	-11.6363
▁미카	-11.6363
즌	-11.6364
▁작가로	-11.6365
평리	-11.6365
샹	-11.6367
▁찰	-11.6367
▁후지와라노	-11.6367
▁그림자	-11.6368
▁1887	-11.637
▁아랫	-11.637
▁바다에	-11.6372
▁시국	-11.6374
▁메타	-11.6374
崇	-11.6375
妃	-11.6375
긋	-11.6375
▁프로그래머	-11.6375
▁요제프	-11.6375
▁유정	-11.6376
▁도스	-11.6376
▁사방	-11.6376
▁피아	-11.6377
풍을	-11.6377
▁마을이	-11.6377
▁가타	-11.6377
운전	-11.6378
▁배가	-11.6378
▁인간을	-11.6379
▁급성	-11.6379
▁전위	-11.638
▁송신	-11.638
▁리오	-11.6381
딕	-11.6381
▁이뤄	-11.6381
▁운영을	-11.6382
)”	-11.6383
▁레스토랑	-11.6385
David	-11.6386
▁시대가	-11.6387
▁다양하게	-11.6387
▁불참	-11.6388
▁89	-11.6388
▁순교	-11.639
▁박종	-11.639
▁압도	-11.6392
킴	-11.6392
▁이상한	-11.6394
ual	-11.6394
▁부당	-11.6394
▁앨범인	-11.6394
▁패러디	-11.6394
表	-11.6394
▁복식	-11.6395
파로	-11.6399
▁똑같이	-11.6399
해준다	-11.64
▁캐나다에서	-11.6401
▁구니	-11.6401
uc	-11.6402
▁병원에서	-11.6402
가지의	-11.6402
윙	-11.6404
▁대단히	-11.6404
▁텔	-11.6406
▁평을	-11.6406
▁의회에서	-11.6407
▁제작을	-11.6409
▁지지자들	-11.641
▁조직이	-11.6411
▁활발하게	-11.6413
세스	-11.6413
▁위그	-11.6413
암리	-11.6414
투르	-11.6414
▁카터	-11.6416
▁엔트리	-11.6416
▁모은	-11.6416
쉐	-11.6416
▁추구하는	-11.6417
협회는	-11.6418
▁조약이	-11.6418
▁감수	-11.642
▁당하고	-11.642
▁92	-11.6421
cul	-11.6421
▁상급	-11.6421
라운드에서	-11.6422
▁자료로	-11.6422
▁검거	-11.6423
▁사회당	-11.6424
▁수록되었다	-11.6426
▁영화에서	-11.6427
▁관해서는	-11.6428
▁종군	-11.6429
ting	-11.643
▁부사	-11.643
도마뱀붙이	-11.6433
▁안전한	-11.6433
能	-11.6433
률은	-11.6434
▁함양	-11.6434
▁불규칙	-11.6435
▁부조	-11.6435
시온	-11.6436
▁영역에	-11.6436
▁교육의	-11.6437
▁춤을	-11.6438
▁명확한	-11.6439
뿔	-11.6441
▁적외선	-11.6441
▁노래이다	-11.6445
▁개가	-11.6445
▁본래의	-11.6446
▁결승에서	-11.6446
▁선구자	-11.6446
츠카	-11.6446
▁장벽	-11.6449
▁여겨지는	-11.6449
▁나타낸	-11.645
▁성곽	-11.645
▁잠실	-11.645
▁제갈량	-11.6451
섬유	-11.6451
▁다스리	-11.6452
顯	-11.6452
▁순위를	-11.6452
▁열심히	-11.6452
魚	-11.6452
彦	-11.6452
HL	-11.6453
ami	-11.6455
▁준결승	-11.6458
▁API	-11.6459
쓰구	-11.6462
▁MTV	-11.6462
▁군이	-11.6462
▁효고현	-11.6462
▁돕기	-11.6462
남부	-11.6463
▁직후에	-11.6463
▁차출	-11.6465
▁신형	-11.6466
▁묘비	-11.6468
▁송도	-11.6471
▁메커니즘	-11.6472
齊	-11.6472
▁놀라	-11.6472
▁급진	-11.6474
▁지붕돌	-11.6474
학은	-11.6475
▁전략을	-11.6477
▁병기	-11.6479
▁만들어져	-11.6479
경제학	-11.648
회와	-11.6481
▁계시	-11.6481
▁방글라데시	-11.6481
▁아이스하키	-11.6481
▁유력한	-11.6482
▁인류의	-11.6482
▁NGC	-11.6482
▁소속기관	-11.6483
IG	-11.6483
▁도입한	-11.6484
▁시험을	-11.6484
oy	-11.6484
실은	-11.6485
▁히트곡	-11.6487
▁토착	-11.6488
▁전반기	-11.6489
▁출연하여	-11.6491
토의	-11.6491
手	-11.6491
▁컴퓨팅	-11.6491
▁관찰사	-11.6491
▁이븐	-11.6492
▁인명	-11.6495
▁청춘	-11.6495
▁참의원	-11.6496
여래	-11.6496
▁이르렀	-11.6498
▁강화도	-11.6499
▁이건	-11.65
▁다나카	-11.65
시간이	-11.65
致	-11.6501
▁아날로그	-11.6501
▁휩쓸	-11.6501
▁내면	-11.6504
▁귀화	-11.6505
▁두가지	-11.6505
▁1866	-11.6506
NG	-11.6508
해줄	-11.6508
▁지미	-11.6508
▁가르치	-11.6508
香	-11.6511
껏	-11.6511
지방검찰청	-11.6511
▁어쩔	-11.6511
▁지쿠	-11.6511
적이었다	-11.6511
▁절단	-11.6512
▁나라는	-11.6513
▁박사학위를	-11.6513
맥스	-11.6514
▁기울	-11.6514
▁이장	-11.6514
면체	-11.6516
▁압도적인	-11.6517
▁길다	-11.6518
▁실시되었다	-11.6518
금속	-11.652
▁Of	-11.652
뚜	-11.652
た	-11.652
發	-11.652
명종	-11.6521
▁바꿀	-11.6522
▁듣는	-11.6522
인들과	-11.6523
퉁	-11.6523
[...]
